{
  "version": "1.0",
  "truncation": null,
  "padding": null,
  "added_tokens": [
    {
      "id": 0,
      "content": "<|endoftext|>",
      "single_word": false,
      "lstrip": false,
      "rstrip": false,
      "normalized": false,
      "special": true
    },
    {
      "id": 1,
      "content": "<pad>",
      "single_word": false,
      "lstrip": false,
      "rstrip": false,
      "normalized": false,
      "special": true
    }
  ],
  "normalizer": null,
  "pre_tokenizer": {
    "type": "ByteLevel",
    "add_prefix_space": false,
    "trim_offsets": true,
    "use_regex": true
  },
  "post_processor": {
    "type": "ByteLevel",
    "add_prefix_space": true,
    "trim_offsets": false,
    "use_regex": true
  },
  "decoder": {
    "type": "ByteLevel",
    "add_prefix_space": true,
    "trim_offsets": true,
    "use_regex": true
  },
  "model": {
    "type": "BPE",
    "dropout": null,
    "unk_token": null,
    "continuing_subword_prefix": null,
    "end_of_word_suffix": null,
    "fuse_unk": false,
    "byte_fallback": false,
    "ignore_merges": false,
    "vocab": {
      "<|endoftext|>": 0,
      "<pad>": 1,
      "\"": 2,
      "$": 3,
      "%": 4,
      "&": 5,
      "'": 6,
      "(": 7,
      ")": 8,
      "+": 9,
      ",": 10,
      "-": 11,
      ".": 12,
      "/": 13,
      "0": 14,
      "1": 15,
      "2": 16,
      "3": 17,
      "4": 18,
      "5": 19,
      "6": 20,
      "7": 21,
      "8": 22,
      "9": 23,
      ":": 24,
      ";": 25,
      "<": 26,
      "=": 27,
      ">": 28,
      "?": 29,
      "A": 30,
      "B": 31,
      "C": 32,
      "D": 33,
      "E": 34,
      "F": 35,
      "G": 36,
      "H": 37,
      "I": 38,
      "J": 39,
      "K": 40,
      "L": 41,
      "M": 42,
      "N": 43,
      "O": 44,
      "P": 45,
      "Q": 46,
      "R": 47,
      "S": 48,
      "T": 49,
      "U": 50,
      "V": 51,
      "W": 52,
      "X": 53,
      "Y": 54,
      "Z": 55,
      "[": 56,
      "\\": 57,
      "]": 58,
      "^": 59,
      "_": 60,
      "a": 61,
      "b": 62,
      "c": 63,
      "d": 64,
      "e": 65,
      "f": 66,
      "g": 67,
      "h": 68,
      "i": 69,
      "j": 70,
      "k": 71,
      "l": 72,
      "m": 73,
      "n": 74,
      "o": 75,
      "p": 76,
      "q": 77,
      "r": 78,
      "s": 79,
      "t": 80,
      "u": 81,
      "v": 82,
      "w": 83,
      "x": 84,
      "y": 85,
      "z": 86,
      "{": 87,
      "|": 88,
      "}": 89,
      "©": 90,
      "±": 91,
      "²": 92,
      "·": 93,
      "»": 94,
      "½": 95,
      "¿": 96,
      "Â": 97,
      "Ã": 98,
      "Ì": 99,
      "Î": 100,
      "Ï": 101,
      "â": 102,
      "ï": 103,
      "Ċ": 104,
      "Ġ": 105,
      "Ģ": 106,
      "ģ": 107,
      "ĥ": 108,
      "Ħ": 109,
      "Ī": 110,
      "ĭ": 111,
      "ĳ": 112,
      "Ĵ": 113,
      "ĵ": 114,
      "Ķ": 115,
      "Ĺ": 116,
      "ĺ": 117,
      "Ļ": 118,
      "ľ": 119,
      "Ŀ": 120,
      "Ġt": 121,
      "Ġa": 122,
      "he": 123,
      "in": 124,
      "re": 125,
      "Ġo": 126,
      "Ġthe": 127,
      "at": 128,
      "Ġc": 129,
      "er": 130,
      "on": 131,
      "es": 132,
      "is": 133,
      "Ġs": 134,
      "al": 135,
      "or": 136,
      "an": 137,
      "Ġp": 138,
      "it": 139,
      "Ġin": 140,
      "Ġf": 141,
      "Ġb": 142,
      "en": 143,
      "Ġm": 144,
      "ar": 145,
      "ion": 146,
      "ing": 147,
      "Ġof": 148,
      "Ġan": 149,
      "Ġd": 150,
      "ed": 151,
      "Ġw": 152,
      "ic": 153,
      "Ġto": 154,
      "Ġe": 155,
      "om": 156,
      "et": 157,
      "Ġr": 158,
      "Ġre": 159,
      "Ġis": 160,
      "us": 161,
      "Ġand": 162,
      "Ġth": 163,
      "as": 164,
      "ent": 165,
      "ul": 166,
      "Ġv": 167,
      "ct": 168,
      "ĠT": 169,
      "Ġpr": 170,
      "il": 171,
      "iv": 172,
      "ur": 173,
      "Ġl": 174,
      "est": 175,
      "ation": 176,
      "ow": 177,
      "Ġas": 178,
      "ly": 179,
      "Ġst": 180,
      "ol": 181,
      "Ġh": 182,
      "Ġbe": 183,
      "Ġcom": 184,
      "ut": 185,
      "vest": 186,
      "un": 187,
      "Ġex": 188,
      "os": 189,
      "im": 190,
      "Ġn": 191,
      "Ġon": 192,
      "Ġthat": 193,
      "ate": 194,
      "Ġfor": 195,
      "Ġcomp": 196,
      "ĠThe": 197,
      "Ġde": 198,
      "io": 199,
      "pt": 200,
      "res": 201,
      "Ġinvest": 202,
      "ĠI": 203,
      "le": 204,
      "alu": 205,
      "ig": 206,
      "Ġor": 207,
      "ra": 208,
      "Ġit": 209,
      "ce": 210,
      "ity": 211,
      "ort": 212,
      "Ġris": 213,
      "Ġus": 214,
      "de": 215,
      "Ġg": 216,
      "âĢ": 217,
      "ck": 218,
      "ch": 219,
      "Ġpric": 220,
      "Ġvalu": 221,
      "Ġrisk": 222,
      "der": 223,
      "ption": 224,
      "qu": 225,
      "ĠA": 226,
      "'s": 227,
      "ment": 228,
      "te": 229,
      "ver": 230,
      "Ġass": 231,
      "Ġcompan": 232,
      "urn": 233,
      "Ġ(": 234,
      "ge": 235,
      "her": 236,
      "Ġpro": 237,
      "ive": 238,
      "Ġcan": 239,
      "if": 240,
      "Ġret": 241,
      "Ġcon": 242,
      "pe": 243,
      "Ġoption": 244,
      "Ġprice": 245,
      "ot": 246,
      "ock": 247,
      "Ġare": 248,
      "Ġreturn": 249,
      "ve": 250,
      "ab": 251,
      "ay": 252,
      "Ġvalue": 253,
      "Ġstock": 254,
      "Ġcompany": 255,
      "Ġmo": 256,
      "Ġsh": 257,
      "ĠS": 258,
      "Ġse": 259,
      "ark": 260,
      "ors": 261,
      "ith": 262,
      "ies": 263,
      "ess": 264,
      "are": 265,
      "Ġwith": 266,
      "Ġal": 267,
      "oul": 268,
      "Ġby": 269,
      "Ġrat": 270,
      "ould": 271,
      "ir": 272,
      "um": 273,
      "ke": 274,
      "ĠF": 275,
      "Ġy": 276,
      "ĠE": 277,
      "and": 278,
      "Ġper": 279,
      "ill": 280,
      "am": 281,
      "ĠR": 282,
      "Ġ\\": 283,
      "Ġwh": 284,
      "ĠC": 285,
      "ure": 286,
      "Ġcal": 287,
      "fol": 288,
      "Ġ1": 289,
      "ortfol": 290,
      "Ġun": 291,
      "ĠIn": 292,
      "Ġasset": 293,
      "ance": 294,
      "ari": 295,
      "arket": 296,
      "st": 297,
      "ard": 298,
      "Ġportfol": 299,
      "âĢĻ": 300,
      "ren": 301,
      "oun": 302,
      "Ġinc": 303,
      "end": 304,
      "ial": 305,
      "ĠP": 306,
      "Ġmarket": 307,
      "low": 308,
      "Ġat": 309,
      "igh": 310,
      "Ġme": 311,
      "ter": 312,
      "vi": 313,
      "tra": 314,
      "ative": 315,
      "Ġits": 316,
      "Ġratio": 317,
      "cul": 318,
      "ther": 319,
      "Ġportfolio": 320,
      "xt": 321,
      "ility": 322,
      "Ġexp": 323,
      "ou": 324,
      "Ġfr": 325,
      "00": 326,
      "ers": 327,
      "ĠM": 328,
      "ust": 329,
      "Ġequ": 330,
      "Ġvari": 331,
      "Ġtra": 332,
      "se": 333,
      "Ġ$": 334,
      "Ġbet": 335,
      "Ġwill": 336,
      "Ġinvestment": 337,
      "tract": 338,
      "ain": 339,
      "ike": 340,
      "Ġwhe": 341,
      "ost": 342,
      "ff": 343,
      "ree": 344,
      "Ġfut": 345,
      "ll": 346,
      "ĠB": 347,
      "ist": 348,
      "ome": 349,
      "text": 350,
      "Ġused": 351,
      "Ġsu": 352,
      "Ġrate": 353,
      "Ġfin": 354,
      "Ġcas": 355,
      "orm": 356,
      "arn": 357,
      "Ġunder": 358,
      "ount": 359,
      "ical": 360,
      "Ġinvestors": 361,
      "ated": 362,
      "Ġhe": 363,
      "ings": 364,
      "ations": 365,
      "ures": 366,
      "Ġha": 367,
      "age": 368,
      "th": 369,
      "Ġ=": 370,
      "Ġch": 371,
      "Ġcalcul": 372,
      "si": 373,
      "ĠTh": 374,
      "Ġnot": 375,
      "Ġuse": 376,
      "pect": 377,
      "ple": 378,
      "Ġind": 379,
      "oo": 380,
      "ore": 381,
      "Ġbu": 382,
      "ult": 383,
      "Ġfrom": 384,
      "Ġne": 385,
      "ant": 386,
      "erm": 387,
      "anc": 388,
      "Ġcontract": 389,
      "able": 390,
      "andard": 391,
      "aly": 392,
      "id": 393,
      "ap": 394,
      "ect": 395,
      "Ġearn": 396,
      "ds": 397,
      "Ġdevi": 398,
      "Ġcash": 399,
      "Ġrel": 400,
      "ual": 401,
      "ĠD": 402,
      "Ġtim": 403,
      "Ġac": 404,
      "ear": 405,
      "Ġhas": 406,
      "ĠIt": 407,
      "Ġover": 408,
      "Ġpre": 409,
      "Ġanaly": 410,
      "Ġwould": 411,
      "Ġoptions": 412,
      "count": 413,
      "âĢĭ": 414,
      "ition": 415,
      "ici": 416,
      "olat": 417,
      "Ġbuy": 418,
      "ding": 419,
      "ight": 420,
      "Ġta": 421,
      "Ġreturns": 422,
      "Ġhave": 423,
      "Ġdeviation": 424,
      "Ġexpect": 425,
      "ĠThis": 426,
      "aus": 427,
      "pl": 428,
      "Ġvolat": 429,
      "Ġone": 430,
      "Ġfinanc": 431,
      "Ġother": 432,
      "del": 433,
      "so": 434,
      "Ġad": 435,
      "ich": 436,
      "Ġthis": 437,
      "Ġflow": 438,
      "Ġwhich": 439,
      "Ġdat": 440,
      "ffici": 441,
      "Ġtime": 442,
      "ĠW": 443,
      "lying": 444,
      "rent": 445,
      "Ġearnings": 446,
      "ause": 447,
      "Ġthan": 448,
      "Ġstr": 449,
      "Ġshare": 450,
      "iz": 451,
      "Ġstandard": 452,
      "Ġprof": 453,
      "Ġmodel": 454,
      "Ġalso": 455,
      "Ġthey": 456,
      "ermin": 457,
      "row": 458,
      "reas": 459,
      "Ġmay": 460,
      "Ġexam": 461,
      "Ġunderlying": 462,
      "Ġdata": 463,
      "act": 464,
      "cause": 465,
      "ile": 466,
      "ders": 467,
      "form": 468,
      "Ġequity": 469,
      "Ġif": 470,
      "rel": 471,
      "Ġtheir": 472,
      "ates": 473,
      "Ġlow": 474,
      "fficient": 475,
      "CF": 476,
      "Ġmeas": 477,
      "Ġinvestor": 478,
      "Ġchan": 479,
      "ating": 480,
      "Ġman": 481,
      "Ġvolatility": 482,
      "resent": 483,
      "iff": 484,
      "cur": 485,
      "Ġim": 486,
      "Ġcor": 487,
      "Ġma": 488,
      "Ġab": 489,
      "Ġdiff": 490,
      "Ġhow": 491,
      "Ġfinancial": 492,
      "Ġmore": 493,
      "ĠH": 494,
      "Ġpos": 495,
      "ital": 496,
      "Ġexample": 497,
      "BI": 498,
      "lu": 499,
      "Ġcap": 500,
      "Ġrep": 501,
      "ĠFor": 502,
      "BIT": 503,
      "ro": 504,
      "ast": 505,
      "Ġlike": 506,
      "Ġyear": 507,
      "Ġfuture": 508,
      "eriv": 509,
      "Ġwe": 510,
      "ign": 511,
      "Ġsell": 512,
      "ared": 513,
      "Ġexpected": 514,
      "Ġprofit": 515,
      "ĠIf": 516,
      "Ġyou": 517,
      "Ġmean": 518,
      "ook": 519,
      "all": 520,
      "art": 521,
      "ose": 522,
      "Ġdep": 523,
      "Ġcapital": 524,
      "pp": 525,
      "ta": 526,
      "Ġcost": 527,
      "Ġinte": 528,
      "Ġdiv": 529,
      "ares": 530,
      "Ġbecause": 531,
      "rest": 532,
      "Ġassum": 533,
      "bt": 534,
      "Ġfun": 535,
      "Ġgrow": 536,
      "ĠInvest": 537,
      "Ġsuch": 538,
      "Ġle": 539,
      "ad": 540,
      "ges": 541,
      "verage": 542,
      "Ġcall": 543,
      "Ġest": 544,
      "DA": 545,
      "mon": 546,
      "per": 547,
      "Ġassets": 548,
      "BITDA": 549,
      "sis": 550,
      "Ġ2": 551,
      "Ġdis": 552,
      "Ġhig": 553,
      "oss": 554,
      "Ġindic": 555,
      "du": 556,
      "Ġincome": 557,
      "OE": 558,
      "ib": 559,
      "ener": 560,
      "Ġmet": 561,
      "Ġres": 562,
      "Ġdel": 563,
      "Ġfutures": 564,
      "Ġinterest": 565,
      "een": 566,
      "wo": 567,
      "Ġout": 568,
      "Ġsim": 569,
      "own": 570,
      "Ġdiffe": 571,
      "Ġestim": 572,
      "Ġhigher": 573,
      "ire": 574,
      "ject": 575,
      "ph": 576,
      "ten": 577,
      "ĠO": 578,
      "Ġpo": 579,
      "ives": 580,
      "Ġsecur": 581,
      "Ġhed": 582,
      "Ġanalysis": 583,
      "ween": 584,
      "ĠSh": 585,
      "Ġbetween": 586,
      "Ġwhen": 587,
      "just": 588,
      "Ġtwo": 589,
      "Ġcould": 590,
      "Ġhigh": 591,
      "ments": 592,
      "abl": 593,
      "'t": 594,
      "Ġcur": 595,
      "ities": 596,
      "Ġnet": 597,
      "Ġperform": 598,
      "Ġcorrel": 599,
      "Ġrepresent": 600,
      "ci": 601,
      "fore": 602,
      "ĠG": 603,
      "Ġco": 604,
      "Ġinde": 605,
      "Ġderiv": 606,
      "ific": 607,
      "Ġ\\\\": 608,
      "to": 609,
      "valu": 610,
      "ong": 611,
      "Ġbut": 612,
      "Ġgener": 613,
      "Ġexpir": 614,
      "Ġbas": 615,
      "etermin": 616,
      "Ġaccount": 617,
      "Ġmeasure": 618,
      "Ġabo": 619,
      ").": 620,
      "ach": 621,
      "cess": 622,
      "king": 623,
      "Ġform": 624,
      "Ġdebt": 625,
      "Ġcompanies": 626,
      "ĠEBITDA": 627,
      "ĠROE": 628,
      "Ġbeta": 629,
      "PM": 630,
      "ie": 631,
      "ability": 632,
      "Ġimp": 633,
      "Ġgrowth": 634,
      "lo": 635,
      "Ġ&": 636,
      "Ġben": 637,
      "ens": 638,
      "Ġconsi": 639,
      "Ġrelative": 640,
      "ables": 641,
      "Ġperformance": 642,
      "ier": 643,
      "ĠU": 644,
      "Ġthen": 645,
      "Ġpay": 646,
      "Ġoften": 647,
      "Ġdo": 648,
      "quared": 649,
      "Ġshares": 650,
      "hol": 651,
      "ied": 652,
      "int": 653,
      "Ġmon": 654,
      "Ġincreas": 655,
      "ward": 656,
      "ĠN": 657,
      "Ġaverage": 658,
      "Ġsam": 659,
      "Ġdetermin": 660,
      "Ġresult": 661,
      "arpe": 662,
      "Ġdec": 663,
      "Ġusing": 664,
      "Ġvariables": 665,
      "APM": 666,
      "ack": 667,
      "ever": 668,
      "ma": 669,
      "Ġspe": 670,
      "ula": 671,
      "ful": 672,
      "ip": 673,
      "squared": 674,
      "Ġag": 675,
      "ict": 676,
      "ction": 677,
      "ĠAs": 678,
      "Ġcontracts": 679,
      "Ġtax": 680,
      "ĠSharpe": 681,
      "Ġexpiration": 682,
      "Ġneg": 683,
      "ef": 684,
      "Ġ)": 685,
      "iness": 686,
      "atives": 687,
      "âĢĶ": 688,
      "Ġproject": 689,
      "Ġdifferent": 690,
      "ho": 691,
      "lp": 692,
      "up": 693,
      "Ġcl": 694,
      "ally": 695,
      "Ġfact": 696,
      "Ġcommon": 697,
      "ĠAn": 698,
      "Ġperio": 699,
      "Ġhelp": 700,
      "Ġstrike": 701,
      "Ġrepresents": 702,
      "holders": 703,
      "Ġnegative": 704,
      "ios": 705,
      "âĪ": 706,
      "Ġ0": 707,
      "Ġam": 708,
      "ange": 709,
      "cept": 710,
      "Ġpoint": 711,
      "Ġcorrelation": 712,
      "free": 713,
      "mark": 714,
      "ric": 715,
      "Ġmight": 716,
      "Ġwas": 717,
      "Ġmove": 718,
      "Ġshould": 719,
      "oug": 720,
      "pha": 721,
      "Ġbased": 722,
      "Ġsame": 723,
      "efficient": 724,
      "Ġte": 725,
      "ine": 726,
      "Ġoil": 727,
      "Ġser": 728,
      "Ġmost": 729,
      "Ġmult": 730,
      "Ġall": 731,
      "Ġfund": 732,
      "Ġindex": 733,
      "ag": 734,
      "ble": 735,
      "Ġpart": 736,
      "usiness": 737,
      "Ġless": 738,
      "chmark": 739,
      "Ġvalues": 740,
      "000": 741,
      "Ġwhether": 742,
      "ĠHow": 743,
      "Ġdepend": 744,
      "Ġbenchmark": 745,
      "ough": 746,
      "ru": 747,
      "Ġob": 748,
      "Ġthere": 749,
      "Ġloss": 750,
      "ĠCAPM": 751,
      "ustr": 752,
      "Ġlower": 753,
      "Ġchanges": 754,
      "Ġdiscount": 755,
      "Ġdelta": 756,
      "Ġcoefficient": 757,
      "ey": 758,
      "rib": 759,
      "Ġ5": 760,
      "Ġty": 761,
      "red": 762,
      "Ġthese": 763,
      "Ġput": 764,
      "Ġprovi": 765,
      "ĠFCF": 766,
      "Ġsecurity": 767,
      "Ġhedge": 768,
      "Ġperiod": 769,
      "ber": 770,
      "ide": 771,
      "our": 772,
      "Ġup": 773,
      "Ġefficient": 774,
      "Ġinclu": 775,
      "Ġformula": 776,
      "ded": 777,
      "Ġ-": 778,
      "Ġsome": 779,
      "ory": 780,
      "Ġfir": 781,
      "Ġbusiness": 782,
      "Ġany": 783,
      "Ġway": 784,
      "Ġbefore": 785,
      "Ġnum": 786,
      "Ġwhile": 787,
      "ood": 788,
      "Ġpred": 789,
      "Ġflows": 790,
      "Ġchange": 791,
      "igned": 792,
      "Ġdivid": 793,
      "ail": 794,
      "con": 795,
      "tal": 796,
      "Ġwor": 797,
      "Ġtotal": 798,
      "ential": 799,
      "Ġprices": 800,
      "ptions": 801,
      "ĠSt": 802,
      "tern": 803,
      "ically": 804,
      "ĠHowever": 805,
      "),": 806,
      "ped": 807,
      "inition": 808,
      "ont": 809,
      "Ġpl": 810,
      "Ġassess": 811,
      "Ġ&\\": 812,
      "ium": 813,
      "of": 814,
      "ions": 815,
      "Ġonly": 816,
      "Ġwhere": 817,
      "side": 818,
      "Ġindustr": 819,
      "Ġprem": 820,
      "Ġcurrent": 821,
      "Ġdoes": 822,
      "Ġmulti": 823,
      "ia": 824,
      "Ġ}": 825,
      "Ġqu": 826,
      "Ġoper": 827,
      "Ġinto": 828,
      "Ġeach": 829,
      "Ġlook": 830,
      "Ġprodu": 831,
      "ĠEx": 832,
      "stand": 833,
      "Ġvariable": 834,
      "Ġcalculated": 835,
      "Ġconsider": 836,
      "Ġpredict": 837,
      "Ġpremium": 838,
      "reci": 839,
      "Ġevalu": 840,
      "ollow": 841,
      "Ġno": 842,
      "orth": 843,
      "Ġ10": 844,
      "Ġshareholders": 845,
      "Ġdetermine": 846,
      "efinition": 847,
      "gin": 848,
      "ves": 849,
      "Ġ\"": 850,
      "ĠL": 851,
      "Ġk": 852,
      "reat": 853,
      "Ġfollow": 854,
      "Ġdist": 855,
      "Ġlong": 856,
      "Ġalpha": 857,
      "Ġcalculate": 858,
      "erminal": 859,
      "Ġ20": 860,
      "ribut": 861,
      "PS": 862,
      "fer": 863,
      "ÃĹ": 864,
      "Ġ+": 865,
      "aligned": 866,
      "Ġpur": 867,
      "Ġpot": 868,
      "Ġdown": 869,
      "Ġworth": 870,
      "Ġhist": 871,
      "ateg": 872,
      "ĠInvestors": 873,
      "Ġindicates": 874,
      "Ġmetho": 875,
      "âĪĴ": 876,
      "Ġpotential": 877,
      "ks": 878,
      "Ġar": 879,
      "Ġapp": 880,
      "Ġfore": 881,
      "Ġinvesting": 882,
      "Ġfront": 883,
      "Ġbuyer": 884,
      "Ġposition": 885,
      "Ġmeans": 886,
      "Ġsimul": 887,
      "Ġestimate": 888,
      "Ġmoney": 889,
      "fter": 890,
      "ĠV": 891,
      "ĠX": 892,
      "Ġtren": 893,
      "ĠAl": 894,
      "Ġtrade": 895,
      "Ġuseful": 896,
      "plied": 897,
      "Ġmetric": 898,
      "ĠGree": 899,
      "Ġfactors": 900,
      "mat": 901,
      "rit": 902,
      "ste": 903,
      "ven": 904,
      "Ġthem": 905,
      "orical": 906,
      "Ġmin": 907,
      "Ġmat": 908,
      "ĠTo": 909,
      "Ġhol": 910,
      "vel": 911,
      "ĠCom": 912,
      "Ġequal": 913,
      "Ġabout": 914,
      "Ġspec": 915,
      "AC": 916,
      "ĠJ": 917,
      "Ġent": 918,
      "Ġfe": 919,
      "eta": 920,
      "Ġcompar": 921,
      "ress": 922,
      "Ġgreat": 923,
      "chas": 924,
      "other": 925,
      "Ġshow": 926,
      "Ġvariance": 927,
      "ffect": 928,
      "ize": 929,
      "Ġlikely": 930,
      "Ġlevel": 931,
      "Ġderivatives": 932,
      "Ġimport": 933,
      "Ġagain": 934,
      "Ġpurchas": 935,
      "Ġfrontier": 936,
      "ACC": 937,
      "ging": 938,
      "hip": 939,
      "tain": 940,
      "ue": 941,
      "Ġafter": 942,
      "Ġinv": 943,
      "Ġreg": 944,
      "ular": 945,
      "iven": 946,
      "Ġlar": 947,
      "ĠThese": 948,
      "oth": 949,
      "illion": 950,
      "ĠMon": 951,
      "Ġsub": 952,
      "ized": 953,
      "Ġseries": 954,
      "reciation": 955,
      "Ġkn": 956,
      "Ġhistorical": 957,
      "%,": 958,
      "com": 959,
      "oped": 960,
      "Ġterm": 961,
      "Ġact": 962,
      "hen": 963,
      "Ġso": 964,
      "arlo": 965,
      "imit": 966,
      "ĠThere": 967,
      "lect": 968,
      "Ġuses": 969,
      "change": 970,
      "Ġwhat": 971,
      "ĠCarlo": 972,
      "ationship": 973,
      "Ġneed": 974,
      "Ġrelationship": 975,
      "Ġstrateg": 976,
      "Ġmeasures": 977,
      "ĠInvestoped": 978,
      "justed": 979,
      "Ġabove": 980,
      "Ġimportant": 981,
      "ĠMonte": 982,
      "ĠInvestopedia": 983,
      "%.": 984,
      "cy": 985,
      "cis": 986,
      "lack": 987,
      "uch": 988,
      "ved": 989,
      "whe": 990,
      "Ġ/": 991,
      "ĠY": 992,
      "Ġsp": 993,
      "itive": 994,
      "Ġbal": 995,
      "Ġmust": 996,
      "Ġthose": 997,
      "oles": 998,
      "choles": 999,
      "sts": 1000,
      "Ġcalculation": 1001,
      "ually": 1002,
      "Ġmanag": 1003,
      "Ġyears": 1004,
      "Ġamount": 1005,
      "Ġpoints": 1006,
      "Ġtyp": 1007,
      "Ġfirm": 1008,
      "des": 1009,
      "dition": 1010,
      "lig": 1011,
      "Ġset": 1012,
      "Ġbook": 1013,
      "Ġmillion": 1014,
      "Ġmuch": 1015,
      "Ġdate": 1016,
      "Ġvar": 1017,
      "Ġnorm": 1018,
      "Ġtraders": 1019,
      "ĠBlack": 1020,
      "Ġmany": 1021,
      "Ġmake": 1022,
      "Ġtaxes": 1023,
      "Ġdistribut": 1024,
      "Ġgreater": 1025,
      "<|": 1026,
      "Con": 1027,
      "Definition": 1028,
      "PT": 1029,
      "cast": 1030,
      "set": 1031,
      "sum": 1032,
      "the": 1033,
      "|>": 1034,
      "ice": 1035,
      "Ġright": 1036,
      "Ġlimit": 1037,
      "Ġgiven": 1038,
      "chn": 1039,
      "Ġsee": 1040,
      "endof": 1041,
      "Ġtrading": 1042,
      "sible": 1043,
      "ĠWACC": 1044,
      "Ġmethod": 1045,
      "Ġappro": 1046,
      "where": 1047,
      "Concept": 1048,
      "endoftext": 1049,
      "50": 1050,
      "Scholes": 1051,
      "come": 1052,
      "ep": 1053,
      "ercis": 1054,
      "Ġreal": 1055,
      "Ġrece": 1056,
      "Ġrequ": 1057,
      "ilities": 1058,
      "Ġstate": 1059,
      "imes": 1060,
      "Ġforward": 1061,
      "ious": 1062,
      "Ġgood": 1063,
      "Ġrisks": 1064,
      "Ġstocks": 1065,
      "amma": 1066,
      "Ġportfolios": 1067,
      "âĢĭ=": 1068,
      "ĠWh": 1069,
      "Ġwell": 1070,
      "Ġprofitability": 1071,
      "Ġdivers": 1072,
      "Ġoblig": 1073,
      "Ġmultiple": 1074,
      "Ġ202": 1075,
      "Ġforecast": 1076,
      "pan": 1077,
      "yn": 1078,
      "Ġx": 1079,
      "ince": 1080,
      "Ġpresent": 1081,
      "Ġpast": 1082,
      "Ġfall": 1083,
      "Ġboth": 1084,
      "Ġref": 1085,
      "ents": 1086,
      "Ġexercis": 1087,
      "Ġconst": 1088,
      "Ġ100": 1089,
      "ariance": 1090,
      "Ġbetter": 1091,
      "Ġinvestments": 1092,
      "ĠDCF": 1093,
      "ization": 1094,
      "Ġassume": 1095,
      "iel": 1096,
      "ĠUn": 1097,
      "Ġincrease": 1098,
      "Ġtechn": 1099,
      "Ġnumber": 1100,
      "Ġdividend": 1101,
      "Ġindustry": 1102,
      "Ġproduct": 1103,
      "standing": 1104,
      "Ġsimulation": 1105,
      "Ġspecific": 1106,
      "Ġagainst": 1107,
      "Ġinvol": 1108,
      "Ġbalance": 1109,
      "be": 1110,
      "cer": 1111,
      "}\\": 1112,
      "Ġ3": 1113,
      "Ġsm": 1114,
      "Ġsign": 1115,
      "Ġinst": 1116,
      "ivid": 1117,
      "Ġli": 1118,
      "Ġcompared": 1119,
      "Ġratios": 1120,
      "Ġpossible": 1121,
      "Ġdepreciation": 1122,
      "Ġsecurities": 1123,
      "Ġderivative": 1124,
      "Ġprovide": 1125,
      "conom": 1126,
      "Ġtrends": 1127,
      "cent": 1128,
      "fra": 1129,
      "out": 1130,
      "ross": 1131,
      "Ġjust": 1132,
      "Ġterminal": 1133,
      "Ġap": 1134,
      "reyn": 1135,
      "Ġtheory": 1136,
      "atist": 1137,
      "ery": 1138,
      "isk": 1139,
      "Ġfig": 1140,
      "Ġbro": 1141,
      "Ġredu": 1142,
      "uring": 1143,
      "utures": 1144,
      "Ġvaluation": 1145,
      "Ġprob": 1146,
      "Ġrates": 1147,
      "Ġyour": 1148,
      "ĠEPS": 1149,
      "ĠBe": 1150,
      "Ġadv": 1151,
      "Ġpositive": 1152,
      "Ġwere": 1153,
      "Ġseller": 1154,
      "valued": 1155,
      "Ġ500": 1156,
      "ĠCompan": 1157,
      "Ġdistribution": 1158,
      "frac": 1159,
      "reynor": 1160,
      "YZ": 1161,
      "ces": 1162,
      "day": 1163,
      "lin": 1164,
      "por": 1165,
      "Ïĥ": 1166,
      "Ġtr": 1167,
      "Ġbon": 1168,
      "Ġdes": 1169,
      "Ġdire": 1170,
      "Ġwant": 1171,
      "Ġisn": 1172,
      "ilar": 1173,
      "Ġline": 1174,
      "Ġexcess": 1175,
      "Ġnon": 1176,
      "ortization": 1177,
      "Ġpricing": 1178,
      "ound": 1179,
      "Ġexpens": 1180,
      "Ġanalyz": 1181,
      "Ġtaking": 1182,
      "ĠWhen": 1183,
      "Ġaccounting": 1184,
      "Ġdecreas": 1185,
      "Ġhelps": 1186,
      "Ġmovements": 1187,
      "Ġevaluate": 1188,
      "Ġdownside": 1189,
      "ĠXYZ": 1190,
      "Ġnormal": 1191,
      "me": 1192,
      "Ġen": 1193,
      "ino": 1194,
      "Ġopt": 1195,
      "Ġins": 1196,
      "Ġfree": 1197,
      "ĠTreynor": 1198,
      "Ġstatist": 1199,
      "Ġbeing": 1200,
      "Ġcomm": 1201,
      "ortino": 1202,
      "Ġgo": 1203,
      "Ġget": 1204,
      "quity": 1205,
      "Ġanalysts": 1206,
      "ples": 1207,
      "Ġfinancing": 1208,
      "Ġmanage": 1209,
      "Ġcosts": 1210,
      "Ġassumes": 1211,
      "Ġcalled": 1212,
      "Ġdeliv": 1213,
      "Ġmonth": 1214,
      "Ġspecul": 1215,
      "Ġinclude": 1216,
      "Ġdoesn": 1217,
      "Ġknown": 1218,
      "Ġstatement": 1219,
      "Ġreduce": 1220,
      "fect": 1221,
      "gg": 1222,
      "ger": 1223,
      "ix": 1224,
      "xim": 1225,
      "Ġke": 1226,
      "heet": 1227,
      "ator": 1228,
      "eric": 1229,
      "Ġsy": 1230,
      "ales": 1231,
      "Ġfa": 1232,
      "Ġbar": 1233,
      "Ġwrit": 1234,
      "iling": 1235,
      "Ġexchange": 1236,
      "abilities": 1237,
      "Ġ19": 1238,
      "Ġexpl": 1239,
      "ained": 1240,
      "Ġindivid": 1241,
      "Ġoverall": 1242,
      "Ġassumptions": 1243,
      "Ġfunds": 1244,
      "ĠOn": 1245,
      "Ġgenerally": 1246,
      "Ġamortization": 1247,
      "ĠStandard": 1248,
      "Ġshows": 1249,
      "}\\\\": 1250,
      "'re": 1251,
      "ires": 1252,
      "kes": 1253,
      "pr": 1254,
      "uct": 1255,
      "Ġz": 1256,
      "ĠÃĹ": 1257,
      "ero": 1258,
      "ence": 1259,
      "ense": 1260,
      "Ġrange": 1261,
      "ily": 1262,
      "utual": 1263,
      "Ġcompare": 1264,
      "ĠThey": 1265,
      "dered": 1266,
      "ĠAm": 1267,
      "ĠSortino": 1268,
      "ĠFutures": 1269,
      "Ġwho": 1270,
      "ounter": 1271,
      "Ġtraded": 1272,
      "ĠBeta": 1273,
      "ible": 1274,
      "ĠOptions": 1275,
      "Ġconsidered": 1276,
      "Ġdependent": 1277,
      "Ġlosses": 1278,
      "ternative": 1279,
      "Ġterms": 1280,
      "Ġsmall": 1281,
      "ĠBecause": 1282,
      "Ġindividual": 1283,
      "og": 1284,
      "ty": 1285,
      "tical": 1286,
      "ĠâĢĭ": 1287,
      "ĠâĪĴ": 1288,
      "Ġopp": 1289,
      "Ġsheet": 1290,
      "als": 1291,
      "ite": 1292,
      "Ġanother": 1293,
      "icular": 1294,
      "Ġeven": 1295,
      "Ġeconom": 1296,
      "ason": 1297,
      "Ġbeen": 1298,
      "Ġrise": 1299,
      "Ġusually": 1300,
      "ify": 1301,
      "Ġsect": 1302,
      "ĠCon": 1303,
      "ĠMPT": 1304,
      "Ġhad": 1305,
      "Ġcalculating": 1306,
      "ĠDeriv": 1307,
      "Ġindicate": 1308,
      "Ġdifferen": 1309,
      "ification": 1310,
      "Ġresults": 1311,
      "Ġparticular": 1312,
      "Ġ}{": 1313,
      "Ġfollowing": 1314,
      "ĠGreeks": 1315,
      "Ġminus": 1316,
      "Ġlarge": 1317,
      "Ġmanagers": 1318,
      "Ġrequire": 1319,
      "Ġdividends": 1320,
      "begin": 1321,
      "Ġliabilities": 1322,
      "ĠDerivatives": 1323,
      "10": 1324,
      "bf": 1325,
      "cor": 1326,
      "clu": 1327,
      "eg": 1328,
      "get": 1329,
      "iqu": 1330,
      "ms": 1331,
      "nual": 1332,
      "ser": 1333,
      "times": 1334,
      "Ġ8": 1335,
      "Ġcre": 1336,
      "one": 1337,
      "ish": 1338,
      "Ġmain": 1339,
      "ics": 1340,
      "Ġtool": 1341,
      "Ġbelow": 1342,
      "Ġcomb": 1343,
      "Ġext": 1344,
      "ately": 1345,
      "cel": 1346,
      "Ġgra": 1347,
      "ified": 1348,
      "Ġcont": 1349,
      "Ġshort": 1350,
      "Ġyiel": 1351,
      "Ġperfect": 1352,
      "ĠRat": 1353,
      "term": 1354,
      "Ġtrailing": 1355,
      "textbf": 1356,
      "Ġcho": 1357,
      "Ġhedging": 1358,
      "Ġ\\\\&": 1359,
      "Ġgenerate": 1360,
      "Ġincreases": 1361,
      "Ġpurchase": 1362,
      "Ġsubtract": 1363,
      "ĠYou": 1364,
      "Ġspre": 1365,
      "ditional": 1366,
      "Ġsignific": 1367,
      "Ġprobability": 1368,
      "ĠCompany": 1369,
      "Ġoptim": 1370,
      "erican": 1371,
      "Ġbarrel": 1372,
      "ĠAmerican": 1373,
      "TM": 1374,
      "ax": 1375,
      "cial": 1376,
      "less": 1377,
      "ov": 1378,
      "pend": 1379,
      "sist": 1380,
      "way": 1381,
      "Ġend": 1382,
      "Ġaffect": 1383,
      "Ġcounter": 1384,
      "Ġsw": 1385,
      "Ġsol": 1386,
      "Ġpat": 1387,
      "Ġinf": 1388,
      "Ġinform": 1389,
      "Ġwide": 1390,
      "Ġtoday": 1391,
      "Ġeffect": 1392,
      "Ġthr": 1393,
      "Ġthree": 1394,
      "ash": 1395,
      "ass": 1396,
      "Ġcompares": 1397,
      "veral": 1398,
      "ively": 1399,
      "Ġseveral": 1400,
      "Ġwithin": 1401,
      "Ġ12": 1402,
      "ĠBy": 1403,
      "Ġsugg": 1404,
      "arnings": 1405,
      "Ġtimes": 1406,
      "Ġvolatile": 1407,
      "Ġmaking": 1408,
      "Ġreport": 1409,
      "Ġprofits": 1410,
      "adjusted": 1411,
      "Ġsimilar": 1412,
      "Ġestimates": 1413,
      "Ġindepend": 1414,
      "Ġcommonly": 1415,
      "Ġtype": 1416,
      "Ġoperations": 1417,
      "Ġoperating": 1418,
      "ĠGreek": 1419,
      "Ġactual": 1420,
      "Ġstrategy": 1421,
      "Ġtypically": 1422,
      "ĠWhile": 1423,
      "Ġdiversification": 1424,
      "Ġexpenses": 1425,
      "Ġsyste": 1426,
      "Ġzero": 1427,
      "ĠRatio": 1428,
      "Ġsuggest": 1429,
      "Ġindependent": 1430,
      "TC": 1431,
      "aid": 1432,
      "ced": 1433,
      "ker": 1434,
      "Ġ4": 1435,
      "ret": 1436,
      "Ġow": 1437,
      "Ġtheore": 1438,
      "Ġsum": 1439,
      "Ġsens": 1440,
      "Ġsales": 1441,
      "ang": 1442,
      "Ġpe": 1443,
      "Ġint": 1444,
      "Ġfit": 1445,
      "Ġfound": 1446,
      "Ġel": 1447,
      "omet": 1448,
      "Ġvers": 1449,
      "ury": 1450,
      "Ġlast": 1451,
      "ational": 1452,
      "Ġstart": 1453,
      "oll": 1454,
      "Ġgr": 1455,
      "verse": 1456,
      "velo": 1457,
      "ains": 1458,
      "ĠThat": 1459,
      "Ġbuying": 1460,
      "Ġtake": 1461,
      "Ġadding": 1462,
      "Ġclose": 1463,
      "Ġmovement": 1464,
      "Ġincluding": 1465,
      "Ġindustries": 1466,
      "matic": 1467,
      "Ġcomparing": 1468,
      "ression": 1469,
      "Ġvarious": 1470,
      "Ġsignificant": 1471,
      "TF": 1472,
      "cus": 1473,
      "od": 1474,
      "ope": 1475,
      "ry": 1476,
      "heck": 1477,
      "hemat": 1478,
      "ind": 1479,
      "Ġcer": 1480,
      "Ġcents": 1481,
      "ans": 1482,
      "Ġfar": 1483,
      "Ġfive": 1484,
      "Ġbest": 1485,
      "Ġmis": 1486,
      "Ġoff": 1487,
      "Ġoffer": 1488,
      "Ġannual": 1489,
      "Ġday": 1490,
      "Ġrand": 1491,
      "Ġrem": 1492,
      "ull": 1493,
      "Ġvery": 1494,
      "ĠTerminal": 1495,
      "ivity": 1496,
      "Ġhand": 1497,
      "ime": 1498,
      "Ġdef": 1499,
      "Ġdevelo": 1500,
      "ortion": 1501,
      "dern": 1502,
      "Ġprop": 1503,
      "Ġprocess": 1504,
      "Ġmoves": 1505,
      "ĠSince": 1506,
      "Ġwithout": 1507,
      "Ġrather": 1508,
      "Ġcase": 1509,
      "Ġunderstand": 1510,
      "Ġbuil": 1511,
      "ĠDe": 1512,
      "Ġaccur": 1513,
      "Ġprefer": 1514,
      "Ġbuyers": 1515,
      "Ġimplied": 1516,
      "ĠAssum": 1517,
      "ĠAnother": 1518,
      "âĪĳ": 1519,
      "Ġparties": 1520,
      "Ġfirst": 1521,
      "Ġwords": 1522,
      "Ġmetrics": 1523,
      "Ġmathemat": 1524,
      "Ġentire": 1525,
      "comes": 1526,
      "Ġreflect": 1527,
      "Ġconstant": 1528,
      "Ġinstru": 1529,
      "Ġfigure": 1530,
      "Ġbonds": 1531,
      "Ġdirection": 1532,
      "Ġstatistical": 1533,
      "Ġkey": 1534,
      "Ġdifference": 1535,
      "ega": 1536,
      "Ġcombin": 1537,
      "sistent": 1538,
      "Ġwidely": 1539,
      "Ġcertain": 1540,
      "Ġrandom": 1541,
      ",\"": 1542,
      "The": 1543,
      "bers": 1544,
      "cl": 1545,
      "ex": 1546,
      "gth": 1547,
      "part": 1548,
      "son": 1549,
      "vant": 1550,
      "vail": 1551,
      "yp": 1552,
      "ĠâĢ": 1553,
      "Ġobt": 1554,
      "ise": 1555,
      "ison": 1556,
      "Ġsc": 1557,
      "orpor": 1558,
      "Ġpaid": 1559,
      "ither": 1560,
      "itial": 1561,
      "Ġinitial": 1562,
      "Ġdail": 1563,
      "Ġduring": 1564,
      "Ġeas": 1565,
      "ctu": 1566,
      "Ġpract": 1567,
      "Ġbeh": 1568,
      "und": 1569,
      "Ġnow": 1570,
      "Ġgamma": 1571,
      "Ġallow": 1572,
      "Ġpercent": 1573,
      "ortfolio": 1574,
      "Ġtrack": 1575,
      "Ġfind": 1576,
      "Ġfinance": 1577,
      "ident": 1578,
      "Ġrelated": 1579,
      "Ġadjust": 1580,
      "Ġadjusted": 1581,
      "luctu": 1582,
      "Ġselling": 1583,
      "Ġleverage": 1584,
      "Ġestimated": 1585,
      "Ġpop": 1586,
      "Ġpayments": 1587,
      "Ġtell": 1588,
      "Ġnumbers": 1589,
      "cond": 1590,
      "ĠExcel": 1591,
      "Ġarr": 1592,
      "Ġfew": 1593,
      "Ġregression": 1594,
      "ĠTherefore": 1595,
      "Ġstrategies": 1596,
      "Ġreceiv": 1597,
      "Ġtechniqu": 1598,
      "Ġwriter": 1599,
      "Ġgraph": 1600,
      "Ġspread": 1601,
      "Ġown": 1602,
      "ĠâĢľ": 1603,
      "Ġdaily": 1604,
      "EBITDA": 1605,
      "PV": 1606,
      "bl": 1607,
      "sing": 1608,
      "ving": 1609,
      "wor": 1610,
      "Î²": 1611,
      "Ġ7": 1612,
      "ĠK": 1613,
      "Ġident": 1614,
      "Ġtend": 1615,
      "hed": 1616,
      "Ġcrit": 1617,
      "Ġsqu": 1618,
      "itivity": 1619,
      "Ġfluctu": 1620,
      "Ġback": 1621,
      "ency": 1622,
      "Ġmar": 1623,
      "ick": 1624,
      "Ġeither": 1625,
      "Ġrele": 1626,
      "urther": 1627,
      "urope": 1628,
      "Ġlin": 1629,
      "Ġstren": 1630,
      "Ġstable": 1631,
      "igma": 1632,
      "ortun": 1633,
      "âĢĿ": 1634,
      "Ġconcept": 1635,
      "ĠForm": 1636,
      "ĠFund": 1637,
      "ĠEach": 1638,
      "ĠEquity": 1639,
      "ĠEurope": 1640,
      "Ġmarkets": 1641,
      "Ġexpires": 1642,
      "Ġequation": 1643,
      "Ġvariation": 1644,
      "Ġtrader": 1645,
      "Ġnew": 1646,
      "Ġovervalued": 1647,
      "ighted": 1648,
      "Ġmeaning": 1649,
      "Ġcurren": 1650,
      "Ġaccounts": 1651,
      "Ġimpact": 1652,
      "Ġimpro": 1653,
      "Ġbenef": 1654,
      "ĠNo": 1655,
      "Ġdecis": 1656,
      "Ġagree": 1657,
      "Ġobser": 1658,
      "Ġlooking": 1659,
      "ĠAlpha": 1660,
      "Ġhold": 1661,
      "Ġcomparison": 1662,
      "Ġlarger": 1663,
      "Ġtypes": 1664,
      "Ġobligation": 1665,
      "Ġexercise": 1666,
      "Ġexercised": 1667,
      "Ġinvolved": 1668,
      "Ġadvis": 1669,
      "Ġinsight": 1670,
      "Ġmanagement": 1671,
      "Ġdeliver": 1672,
      "Ġsector": 1673,
      "Ġcounterpart": 1674,
      "Ġswap": 1675,
      "Ġinformation": 1676,
      "Ġthrough": 1677,
      "Ġsensitivity": 1678,
      "ĠAssume": 1679,
      "Ġmargin": 1680,
      "Ġstrength": 1681,
      "ĠEuropean": 1682,
      "cash": 1683,
      "for": 1684,
      "ken": 1685,
      "lie": 1686,
      "mand": 1687,
      "not": 1688,
      "pon": 1689,
      "ply": 1690,
      "put": 1691,
      "sigma": 1692,
      "Ġut": 1693,
      "ĠÏĥ": 1694,
      "ators": 1695,
      "Ġsince": 1696,
      "Ġsomet": 1697,
      "ality": 1698,
      "alcul": 1699,
      "alth": 1700,
      "orrow": 1701,
      "Ġinter": 1702,
      "Ġbo": 1703,
      "ary": 1704,
      "icult": 1705,
      "Ġtoo": 1706,
      "Ġreven": 1707,
      "Ġreason": 1708,
      "Ġthough": 1709,
      "ention": 1710,
      "ĠTreas": 1711,
      "ĠTime": 1712,
      "Ġlock": 1713,
      "Ġbelie": 1714,
      "ute": 1715,
      "Ġexist": 1716,
      "Ġexclu": 1717,
      "osure": 1718,
      "Ġdemand": 1719,
      "ĠIm": 1720,
      "lex": 1721,
      "ĠAd": 1722,
      "Ġcannot": 1723,
      "Ġmodern": 1724,
      "ĠSu": 1725,
      "Ġsecond": 1726,
      "ĠCalcul": 1727,
      "Ġ15": 1728,
      "ending": 1729,
      "Ġexpense": 1730,
      "ĠMan": 1731,
      "Ġequip": 1732,
      "sell": 1733,
      "Ġundervalued": 1734,
      "Ġhealth": 1735,
      "Ġnext": 1736,
      "Ġnecess": 1737,
      "ĠDefinition": 1738,
      "earson": 1739,
      "Ġadd": 1740,
      "Ġadditional": 1741,
      "Ġmaxim": 1742,
      "Ġdifficult": 1743,
      "Ġhowever": 1744,
      "Ġsimply": 1745,
      "ĠGamma": 1746,
      "Ġclos": 1747,
      "Ġdepends": 1748,
      "Ġdiscounted": 1749,
      "Ġprovides": 1750,
      "Ġways": 1751,
      "oft": 1752,
      "Ġquant": 1753,
      "Ġconsidering": 1754,
      "stead": 1755,
      "Ġholder": 1756,
      "Ġenter": 1757,
      "Ġlevels": 1758,
      "Ġvary": 1759,
      "Ġlimitations": 1760,
      "Ġreceive": 1761,
      "Ġconstru": 1762,
      "Ġproducts": 1763,
      "Ġbroker": 1764,
      "Ġanalyze": 1765,
      "Ġdecrease": 1766,
      "Ġcommod": 1767,
      "ĠOne": 1768,
      "ternatively": 1769,
      "Ġyield": 1770,
      "ways": 1771,
      "Ġpattern": 1772,
      "Ġsystematic": 1773,
      "Ġsuggests": 1774,
      "Ġgrou": 1775,
      "Ġmathematical": 1776,
      "Ġpercentage": 1777,
      "ĠFormula": 1778,
      "Ġbenefit": 1779,
      "Ġequipment": 1780,
      "=\\": 1781,
      "BT": 1782,
      "ML": 1783,
      "\\%": 1784,
      "ac": 1785,
      "au": 1786,
      "ament": 1787,
      "ages": 1788,
      "gree": 1789,
      "gine": 1790,
      "li": 1791,
      "line": 1792,
      "ous": 1793,
      "over": 1794,
      "ocus": 1795,
      "pet": 1796,
      "ting": 1797,
      "til": 1798,
      "ud": 1799,
      "Ġ%": 1800,
      "ĠZ": 1801,
      "Ġide": 1802,
      "inci": 1803,
      "Ġop": 1804,
      "Ġtheta": 1805,
      "Ġcust": 1806,
      "Ġcheck": 1807,
      "Ġsay": 1808,
      "Ġfra": 1809,
      "Ġfurther": 1810,
      "Ġfocus": 1811,
      "Ġbull": 1812,
      "Ġborrow": 1813,
      "arily": 1814,
      "Ġded": 1815,
      "Ġdoll": 1816,
      "ications": 1817,
      "Ġreward": 1818,
      "Ġlet": 1819,
      "Ġlif": 1820,
      "Ġstep": 1821,
      "Ġhis": 1822,
      "Ġhyp": 1823,
      "ĠTheta": 1824,
      "Ġdegree": 1825,
      "Ġgives": 1826,
      "Ġgau": 1827,
      "very": 1828,
      "Ġproper": 1829,
      "ift": 1830,
      "othe": 1831,
      "ĠSome": 1832,
      "Ġalways": 1833,
      "ĠFr": 1834,
      "ĠETF": 1835,
      "Ġperpet": 1836,
      "ĠRet": 1837,
      "Ġuncer": 1838,
      "ĠIncome": 1839,
      "ĠPortfolio": 1840,
      "ĠMe": 1841,
      "Ġnear": 1842,
      "âĢĭâĢĭ": 1843,
      "Ġstrong": 1844,
      "Ġstandardized": 1845,
      "Ġmakes": 1846,
      "Ġweighted": 1847,
      "Ġfunction": 1848,
      "Ġgeneral": 1849,
      "Ġmeasurement": 1850,
      "Ġrelatively": 1851,
      "Ġincreasing": 1852,
      "Ġprojected": 1853,
      "Ġfactor": 1854,
      "Ġfundament": 1855,
      "Ġwork": 1856,
      "ĠExchange": 1857,
      "ĠLike": 1858,
      "Ġlonger": 1859,
      "Ġminim": 1860,
      "Ġknow": 1861,
      "Ġapproach": 1862,
      "ĠWhat": 1863,
      "Ġspeculate": 1864,
      "Ġfair": 1865,
      "Ġeconomic": 1866,
      "Ġextre": 1867,
      "Ġbarrels": 1868,
      "axis": 1869,
      "Ġtheoretical": 1870,
      "Ġelse": 1871,
      "Ġscen": 1872,
      "Ġarrive": 1873,
      "Ġrelevant": 1874,
      "Ġcurrency": 1875,
      "ĠTreasury": 1876,
      "Ġconstruct": 1877,
      "Ġgroup": 1878,
      "Ġcustom": 1879,
      "Ġdollar": 1880,
      "Ġlife": 1881,
      "Ġhypothe": 1882,
      "Ġuncertain": 1883,
      ".\"": 1884,
      ".,": 1885,
      "100": 1886,
      ":}": 1887,
      "CAPM": 1888,
      "ak": 1889,
      "av": 1890,
      "back": 1891,
      "beta": 1892,
      "fact": 1893,
      "ged": 1894,
      "led": 1895,
      "like": 1896,
      "mber": 1897,
      "oan": 1898,
      "off": 1899,
      "risk": 1900,
      "sol": 1901,
      "ubl": 1902,
      "wh": 1903,
      "yle": 1904,
      "year": 1905,
      "{\\": 1906,
      "Ġ6": 1907,
      "ĠQ": 1908,
      "Ġ^": 1909,
      "Ġj": 1910,
      "Ġes": 1911,
      "Ġach": 1912,
      "Ġaver": 1913,
      "rect": 1914,
      "Ġcol": 1915,
      "iss": 1916,
      "ank": 1917,
      "anges": 1918,
      "Ġpubl": 1919,
      "Ġfl": 1920,
      "Ġbad": 1921,
      "Ġdr": 1922,
      "Ġdra": 1923,
      "Ġdue": 1924,
      "ices": 1925,
      "Ġiss": 1926,
      "ĠTra": 1927,
      "Ġprinci": 1928,
      "Ġlen": 1929,
      "Ġloan": 1930,
      "olog": 1931,
      "osite": 1932,
      "igin": 1933,
      "Ġorigin": 1934,
      "Ġgu": 1935,
      "Ġgive": 1936,
      "Ġriskier": 1937,
      "Ġconcer": 1938,
      "pear": 1939,
      "ably": 1940,
      "ĠFree": 1941,
      "Ġuntil": 1942,
      "style": 1943,
      "Ġexposure": 1944,
      "ĠMo": 1945,
      "ĠMost": 1946,
      "ĠBut": 1947,
      "Ġunderstanding": 1948,
      "ances": 1949,
      "Ġdeviations": 1950,
      "ĠDis": 1951,
      "Ġacqu": 1952,
      "Ġaccept": 1953,
      "Ġtakes": 1954,
      "plies": 1955,
      "fficiency": 1956,
      "Ġprofess": 1957,
      "relation": 1958,
      "Ġmade": 1959,
      "ĠHed": 1960,
      "ppose": 1961,
      "mong": 1962,
      "perform": 1963,
      "Ġdisp": 1964,
      "ĠOTC": 1965,
      "Ġhighly": 1966,
      "Ġderived": 1967,
      "ĠUsing": 1968,
      "ĠNet": 1969,
      "Ġdeclin": 1970,
      "Ġclass": 1971,
      "ĠAnaly": 1972,
      "Ġdividing": 1973,
      "Ġworking": 1974,
      "Ġpredicted": 1975,
      "Ġmethods": 1976,
      "Ġart": 1977,
      "Ġsimulations": 1978,
      "Ġtrend": 1979,
      "ĠAlternatively": 1980,
      "Ġneeds": 1981,
      "Ġ2025": 1982,
      "Ġfalls": 1983,
      "ĠUnder": 1984,
      "Ġinstance": 1985,
      "Ġdesc": 1986,
      "Ġdecreases": 1987,
      "Ġdelivery": 1988,
      "Ġmonthly": 1989,
      "Ġopportun": 1990,
      "gether": 1991,
      "Ġcontr": 1992,
      "Ġoptimal": 1993,
      "ovariance": 1994,
      "Ġremain": 1995,
      "Ġinstruments": 1996,
      "vailable": 1997,
      "Ġpopular": 1998,
      "Ġtechnique": 1999,
      "Ġsquare": 2000,
      "Ġdecisions": 2001,
      "Ġnecessarily": 2002,
      "Ġpatterns": 2003,
      "Ġdeduct": 2004,
      "Ġgauge": 2005,
      "ĠReturn": 2006,
      "Ġextreme": 2007,
      "Ġachie": 2008,
      "Ġconcern": 2009,
      "20": 2010,
      "40": 2011,
      "80": 2012,
      "DCF": 2013,
      "EG": 2014,
      "ER": 2015,
      "MPT": 2016,
      "PC": 2017,
      "ROE": 2018,
      "ely": 2019,
      "ft": 2020,
      "iate": 2021,
      "ler": 2022,
      "norm": 2023,
      "oci": 2024,
      "ral": 2025,
      "ted": 2026,
      "tle": 2027,
      "ues": 2028,
      "vent": 2029,
      "vious": 2030,
      "ying": 2031,
      "Ġ9": 2032,
      "Ġamong": 2033,
      "Ġavailable": 2034,
      "hes": 2035,
      "ins": 2036,
      "Ġcru": 2037,
      "Ġcred": 2038,
      "eri": 2039,
      "Ġsing": 2040,
      "itu": 2041,
      "itz": 2042,
      "Ġinput": 2043,
      "Ġinstead": 2044,
      "Ġful": 2045,
      "Ġfour": 2046,
      "Ġfix": 2047,
      "Ġbig": 2048,
      "Ġmutual": 2049,
      "arter": 2050,
      "Ġdon": 2051,
      "Ġden": 2052,
      "Ġdro": 2053,
      "Ġtogether": 2054,
      "Ġtoler": 2055,
      "Ġear": 2056,
      "Ġevery": 2057,
      "omin": 2058,
      "ety": 2059,
      "Ġro": 2060,
      "Ġrely": 2061,
      "ulas": 2062,
      "ulated": 2063,
      "Ġvega": 2064,
      "urance": 2065,
      "owitz": 2066,
      "Ġstill": 2067,
      "ole": 2068,
      "Ġcomes": 2069,
      "Ġexit": 2070,
      "imin": 2071,
      "Ġnam": 2072,
      "Ġcomplex": 2073,
      "dex": 2074,
      "Ġassoci": 2075,
      "Ġ($": 2076,
      "Ġprote": 2077,
      "Ġretail": 2078,
      "Ġsection": 2079,
      "arkowitz": 2080,
      "areholders": 2081,
      "Ġalong": 2082,
      "Ġalternative": 2083,
      "ĠEBIT": 2084,
      "ĠRisk": 2085,
      "Ġwhy": 2086,
      "ĠCor": 2087,
      "ĠIndex": 2088,
      "ĠPearson": 2089,
      "ĠPEG": 2090,
      "traded": 2091,
      "Ġexperi": 2092,
      "ĠMic": 2093,
      "ĠMarkowitz": 2094,
      "Ġvariability": 2095,
      "ĠBu": 2096,
      "though": 2097,
      "Ġchall": 2098,
      "Ġcalculations": 2099,
      "Ġearned": 2100,
      "Ġacross": 2101,
      "Ġtaken": 2102,
      "plained": 2103,
      "Ġstruct": 2104,
      "Ġmodels": 2105,
      "rowth": 2106,
      "Ġcorpor": 2107,
      "Ġcorrect": 2108,
      "ĠHe": 2109,
      "Ġdivide": 2110,
      "Ġoutstanding": 2111,
      "Ġcurve": 2112,
      "Ġdetermining": 2113,
      "Ġhelpful": 2114,
      "Ġdepending": 2115,
      "rue": 2116,
      "Ġmultiplied": 2117,
      "Ġquarter": 2118,
      "Ġlooks": 2119,
      "Ġevaluating": 2120,
      "Ġfollows": 2121,
      "Ġpositions": 2122,
      "Ġfees": 2123,
      "Ġfirms": 2124,
      "Ġforwards": 2125,
      "Ġinvolves": 2126,
      "Ġappear": 2127,
      "Ġfigures": 2128,
      "linear": 2129,
      "Ġbond": 2130,
      "Ġdirect": 2131,
      "Ġwants": 2132,
      "Ġanalyzing": 2133,
      "Ġinsurance": 2134,
      "Ġopposite": 2135,
      "Ġrequired": 2136,
      "cording": 2137,
      "Ġperfectly": 2138,
      "cially": 2139,
      "Ġreported": 2140,
      "Ġstarting": 2141,
      "Ġdeveloped": 2142,
      "Ġobtain": 2143,
      "Ġbeha": 2144,
      "Ġlinear": 2145,
      "Ġimprove": 2146,
      "Ġinsights": 2147,
      "Ġcounterparty": 2148,
      "Ġopen": 2149,
      "Ġframe": 2150,
      "Ġoriginal": 2151,
      "ĠDiscount": 2152,
      "Ġprofession": 2153,
      "ĠUnderstanding": 2154,
      "Ġdescrib": 2155,
      "Ġcredit": 2156,
      "Ġsingle": 2157,
      "Ġfixed": 2158,
      "Ġtolerance": 2159,
      "Ġchallen": 2160,
      "'ll": 2161,
      "15": 2162,
      "25": 2163,
      "200": 2164,
      "As": 2165,
      "Ex": 2166,
      "GR": 2167,
      "Net": 2168,
      "Re": 2169,
      "VPS": 2170,
      "ader": 2171,
      "ads": 2172,
      "cing": 2173,
      "cap": 2174,
      "hood": 2175,
      "kers": 2176,
      "la": 2177,
      "ner": 2178,
      "rate": 2179,
      "sive": 2180,
      "tribut": 2181,
      "uity": 2182,
      "xy": 2183,
      "Ġ{": 2184,
      "ĠâĪĳ": 2185,
      "Ġaim": 2186,
      "ining": 2187,
      "ature": 2188,
      "Ġcross": 2189,
      "ond": 2190,
      "ished": 2191,
      "Ġsour": 2192,
      "Ġsitu": 2193,
      "ories": 2194,
      "Ġpict": 2195,
      "itable": 2196,
      "Ġintern": 2197,
      "arch": 2198,
      "arry": 2199,
      "icking": 2200,
      "Ġefficiency": 2201,
      "Ġrun": 2202,
      "Ġreve": 2203,
      "Ġrefer": 2204,
      "Ġrecent": 2205,
      "Ġrecor": 2206,
      "Ġvs": 2207,
      "urity": 2208,
      "Ġlat": 2209,
      "Ġbecomes": 2210,
      "Ġcome": 2211,
      "osen": 2212,
      "Ġcompon": 2213,
      "Ġcomput": 2214,
      "ĠIma": 2215,
      "lecom": 2216,
      "Ġgain": 2217,
      "Ġgoo": 2218,
      "Ġvalued": 2219,
      "Ġrisky": 2220,
      "quent": 2221,
      "terest": 2222,
      "Ġproble": 2223,
      "Ġcontext": 2224,
      "Ġconsistent": 2225,
      "pecially": 2226,
      "ĠSo": 2227,
      "ĠSim": 2228,
      "Ġseason": 2229,
      "ĠFin": 2230,
      "ĠRe": 2231,
      "Ġwhose": 2232,
      "Ġ18": 2233,
      "ardless": 2234,
      "Ġincorpor": 2235,
      "Ġattract": 2236,
      "Ġexpress": 2237,
      "ĠMore": 2238,
      "ĠMult": 2239,
      "ĠMutual": 2240,
      "ĠMPC": 2241,
      "Ġvariety": 2242,
      "Ġwilling": 2243,
      "Ġcases": 2244,
      "Ġhapp": 2245,
      "Ġchar": 2246,
      "Ġchosen": 2247,
      "Ġaccess": 2248,
      "Ġprevious": 2249,
      "âĢĭÃĹ": 2250,
      "icip": 2251,
      "Ġexpectations": 2252,
      "plo": 2253,
      "Ġprofile": 2254,
      "Ġabsol": 2255,
      "Ġlikeli": 2256,
      "Ġsellers": 2257,
      "Ġleast": 2258,
      "perating": 2259,
      "Ġoutcomes": 2260,
      "Ġcorrelated": 2261,
      "Ġexpiry": 2262,
      "Ġbasis": 2263,
      "Ġformulas": 2264,
      "iew": 2265,
      "Ġpays": 2266,
      "ĠNe": 2267,
      "aged": 2268,
      "Ġtherefore": 2269,
      "Ġdiscounting": 2270,
      "Ġcoefficients": 2271,
      "Ġ50": 2272,
      "Ġupon": 2273,
      "Ġdivided": 2274,
      "ĠStock": 2275,
      "Ġplus": 2276,
      "Ġproduce": 2277,
      "Ġconsideration": 2278,
      "Ġworthless": 2279,
      "ĠAlthough": 2280,
      "Ġtradeoff": 2281,
      "Ġmaturity": 2282,
      "Ġholding": 2283,
      "Ġmanager": 2284,
      "Ġapproxim": 2285,
      "Ġreality": 2286,
      "Ġrequires": 2287,
      "Ġobligated": 2288,
      "Ġ2022": 2289,
      "Ġrefers": 2290,
      "Ġbroader": 2291,
      "Ġtrans": 2292,
      "Ġmonths": 2293,
      "Ġexplain": 2294,
      "priate": 2295,
      "Ġparticularly": 2296,
      "Ġchoose": 2297,
      "return": 2298,
      "versely": 2299,
      "Ġoffset": 2300,
      "Ġproportion": 2301,
      "Ġbuild": 2302,
      "âĪĳ(": 2303,
      "Ġcombination": 2304,
      "Ġeasier": 2305,
      "Ġreceived": 2306,
      "work": 2307,
      "Ġidentify": 2308,
      "Ġfluctuations": 2309,
      "Ġobserved": 2310,
      "Ġbox": 2311,
      "Ġrevenue": 2312,
      "Ġcommodity": 2313,
      "Ġbullish": 2314,
      "Ġletter": 2315,
      "Ġproperty": 2316,
      "Ġperpetuity": 2317,
      "Ġfundamental": 2318,
      "Ġhypothetical": 2319,
      "Ġuncertainty": 2320,
      "while": 2321,
      "Ġespecially": 2322,
      "Ġdrift": 2323,
      "ology": 2324,
      "ĠAnalysts": 2325,
      "Ġextremely": 2326,
      "Ġdenomin": 2327,
      "Ġdrop": 2328,
      "ĠDiscounted": 2329,
      "Ġpicture": 2330,
      "ĠImagine": 2331,
      "Ġgoods": 2332,
      "Ġexpressed": 2333,
      "Ġabsolute": 2334,
      "Ġlikelihood": 2335,
      "30": 2336,
      "60": 2337,
      "72": 2338,
      "EPS": 2339,
      "Equity": 2340,
      "FCF": 2341,
      "Market": 2342,
      "NPV": 2343,
      "RS": 2344,
      "Rf": 2345,
      "Risk": 2346,
      "ading": 2347,
      "eren": 2348,
      "earnings": 2349,
      "gress": 2350,
      "hy": 2351,
      "hing": 2352,
      "ira": 2353,
      "ipl": 2354,
      "jor": 2355,
      "ld": 2356,
      "med": 2357,
      "ning": 2358,
      "ness": 2359,
      "ores": 2360,
      "sed": 2361,
      "tically": 2362,
      "tible": 2363,
      "ug": 2364,
      "ufact": 2365,
      "variance": 2366,
      "ware": 2367,
      "}=\\": 2368,
      "Ïģ": 2369,
      "Ġill": 2370,
      "Ġign": 2371,
      "Ġens": 2372,
      "Ġturn": 2373,
      "Ġtrue": 2374,
      "herent": 2375,
      "ink": 2376,
      "rehen": 2377,
      "Ġcare": 2378,
      "Ġcaus": 2379,
      "Ġcause": 2380,
      "isition": 2381,
      "Ġsust": 2382,
      "Ġsize": 2383,
      "ante": 2384,
      "Ġportion": 2385,
      "Ġphy": 2386,
      "itig": 2387,
      "Ġinherent": 2388,
      "Ġfre": 2389,
      "Ġfiel": 2390,
      "Ġmitig": 2391,
      "arr": 2392,
      "ario": 2393,
      "Ġdone": 2394,
      "icis": 2395,
      "icle": 2396,
      "Ġem": 2397,
      "omma": 2398,
      "Ġrho": 2399,
      "Ġthir": 2400,
      "aset": 2401,
      "asure": 2402,
      "Ġview": 2403,
      "ĠTurn": 2404,
      "ivers": 2405,
      "Ġlit": 2406,
      "Ġlist": 2407,
      "Ġlog": 2408,
      "Ġstated": 2409,
      "Ġbecome": 2410,
      "Ġexce": 2411,
      "Ġexch": 2412,
      "osing": 2413,
      "iment": 2414,
      "Ġcompl": 2415,
      "Ġcompet": 2416,
      "Ġcompens": 2417,
      "Ġite": 2418,
      "orty": 2419,
      "Ġrises": 2420,
      "Ġrising": 2421,
      "Ġgains": 2422,
      "tem": 2423,
      "vertible": 2424,
      "otal": 2425,
      "ĠSe": 2426,
      "Ġseen": 2427,
      "Ġselect": 2428,
      "ĠCML": 2429,
      "ariation": 2430,
      "standard": 2431,
      "ĠPric": 2432,
      "ĠMer": 2433,
      "ĠMorty": 2434,
      "Ġvariances": 2435,
      "section": 2436,
      "ĠBook": 2437,
      "ĠBVPS": 2438,
      "thing": 2439,
      "ants": 2440,
      "anced": 2441,
      "ĠDep": 2442,
      "âĢĭ)": 2443,
      "âĢĭâĪĴ": 2444,
      "Ġexpects": 2445,
      "plications": 2446,
      "Ġadds": 2447,
      "Ġdataset": 2448,
      "ĠWith": 2449,
      "Ġexamples": 2450,
      "Ġmanufact": 2451,
      "Ġmajor": 2452,
      "Ġable": 2453,
      "Ġability": 2454,
      "Ġprofitable": 2455,
      "Ġdepreci": 2456,
      "tax": 2457,
      "Ġgrowing": 2458,
      "ĠInvestment": 2459,
      "Ġlever": 2460,
      "Ġindicating": 2461,
      "Ġindicators": 2462,
      "Ġrespect": 2463,
      "Ġrespon": 2464,
      "Ġoutside": 2465,
      "Ġestimating": 2466,
      "ĠShareholders": 2467,
      "Ġcovariance": 2468,
      "Ġgenerated": 2469,
      "Ġpaying": 2470,
      "Ġincreased": 2471,
      "ĠNPV": 2472,
      "Ġprojects": 2473,
      "Ġprojections": 2474,
      "Ġperiods": 2475,
      "Ġtelecom": 2476,
      "Ġserv": 2477,
      "Ġmultip": 2478,
      "Ġobject": 2479,
      "Ġproviding": 2480,
      "Ġincludes": 2481,
      "Ġbusinesses": 2482,
      "Ġassessing": 2483,
      "Ġmultiples": 2484,
      "Ġquick": 2485,
      "Ġquality": 2486,
      "ĠExam": 2487,
      "ĠLet": 2488,
      "Ġforever": 2489,
      "ĠVariance": 2490,
      "ĠVega": 2491,
      "ĠVariation": 2492,
      "Ġequals": 2493,
      "ĠJo": 2494,
      "Ġpurchasing": 2495,
      "Ġpurchased": 2496,
      "Ġsubject": 2497,
      "Ġrelationships": 2498,
      "Ġappropriate": 2499,
      "Ġobligations": 2500,
      "Ġforecasting": 2501,
      "ĠUnlike": 2502,
      "bel": 2503,
      "Ġapplied": 2504,
      "ĠCompanies": 2505,
      "Ġdesira": 2506,
      "ilarly": 2507,
      "Ġexpensive": 2508,
      "Ġgoal": 2509,
      "Ġkeep": 2510,
      "}\\\\&": 2511,
      "Ġeconomist": 2512,
      "Ġsectors": 2513,
      "Ġcreate": 2514,
      "Ġtools": 2515,
      "Ġcontin": 2516,
      "Ġinflu": 2517,
      "Ġeffectively": 2518,
      "angible": 2519,
      "Ġversus": 2520,
      "Ġsignificantly": 2521,
      "Ġoffering": 2522,
      "Ġannualized": 2523,
      "Ġdevelop": 2524,
      "explained": 2525,
      "Ġpractice": 2526,
      "Ġtracks": 2527,
      "Ġtells": 2528,
      "ĠNobel": 2529,
      "Ġagreement": 2530,
      "Ġholdings": 2531,
      "Ġswaps": 2532,
      "Ġsometimes": 2533,
      "Ġinterv": 2534,
      "ĠImplied": 2535,
      "ĠAdding": 2536,
      "ĠSuppose": 2537,
      "ĠMany": 2538,
      "oftware": 2539,
      "Ġfairly": 2540,
      "Ġscenario": 2541,
      "Ġconstructed": 2542,
      "ĠQRS": 2543,
      "Ġjud": 2544,
      "Ġpublic": 2545,
      "ĠTraders": 2546,
      "ĠModel": 2547,
      "Ġacquisition": 2548,
      "ĠHedging": 2549,
      "Ġdispers": 2550,
      "Ġdeclines": 2551,
      "Ġarticle": 2552,
      "Ġconcerned": 2553,
      "normal": 2554,
      "Ġcrucial": 2555,
      "Ġfully": 2556,
      "Ġassociated": 2557,
      "Ġstructure": 2558,
      "Ġcorporate": 2559,
      "Asset": 2560,
      "Ġsituation": 2561,
      "Ġrecord": 2562,
      "ĠSimilarly": 2563,
      "ĠMultipl": 2564,
      "ploy": 2565,
      "Ġdenominator": 2566,
      "Ġsustain": 2567,
      "Ġphys": 2568,
      "Ġfields": 2569,
      "Ġthird": 2570,
      "ĠTurnover": 2571,
      "sectional": 2572,
      "Ġdesirable": 2573,
      "ĠMultiplier": 2574,
      "17": 2575,
      "22": 2576,
      "37": 2577,
      "55": 2578,
      "75": 2579,
      "800": 2580,
      "90": 2581,
      "Earnings": 2582,
      "EBT": 2583,
      "ME": 2584,
      "Rd": 2585,
      "Rp": 2586,
      "SM": 2587,
      "Sh": 2588,
      "Tc": 2589,
      "WACC": 2590,
      "apt": 2591,
      "ace": 2592,
      "ault": 2593,
      "acy": 2594,
      "averse": 2595,
      "bs": 2596,
      "cre": 2597,
      "ccess": 2598,
      "light": 2599,
      "lta": 2600,
      "mun": 2601,
      "pric": 2602,
      "pret": 2603,
      "rt": 2604,
      "ron": 2605,
      "ros": 2606,
      "sh": 2607,
      "ton": 2608,
      "ued": 2609,
      "}{\\": 2610,
      "Ġi": 2611,
      "Ġess": 2612,
      "ĠÎ²": 2613,
      "Ġtar": 2614,
      "invest": 2615,
      "Ġoc": 2616,
      "Ġour": 2617,
      "ata": 2618,
      "ather": 2619,
      "Ġcum": 2620,
      "erator": 2621,
      "onsistent": 2622,
      "ising": 2623,
      "Ġsent": 2624,
      "Ġske": 2625,
      "Ġslo": 2626,
      "Ġside": 2627,
      "Ġsoftware": 2628,
      "ord": 2629,
      "Ġpol": 2630,
      "Ġpass": 2631,
      "Ġpicking": 2632,
      "itures": 2633,
      "Ġfas": 2634,
      "ences": 2635,
      "Ġmix": 2636,
      "arante": 2637,
      "Ġdet": 2638,
      "Ġdid": 2639,
      "Ġevent": 2640,
      "ett": 2641,
      "Ġrare": 2642,
      "Ġthus": 2643,
      "Ġthink": 2644,
      "ased": 2645,
      "ulation": 2646,
      "ulative": 2647,
      "ĠTe": 2648,
      "Ġpros": 2649,
      "ived": 2650,
      "Ġlu": 2651,
      "Ġstra": 2652,
      "old": 2653,
      "Ġbegin": 2654,
      "osed": 2655,
      "Ġones": 2656,
      "Ġonline": 2657,
      "Ġcomprehen": 2658,
      "Ġdee": 2659,
      "Ġgross": 2660,
      "Ġpriced": 2661,
      "Ġvaluable": 2662,
      "quid": 2663,
      "ĠAc": 2664,
      "tep": 2665,
      "Ġretention": 2666,
      "Ġcondu": 2667,
      "Ġcondition": 2668,
      "otted": 2669,
      "Ġaren": 2670,
      "Ġreturned": 2671,
      "Ġshown": 2672,
      "ĠStep": 2673,
      "ĠEconom": 2674,
      "ĠEarnings": 2675,
      "ĠEBT": 2676,
      "ĠCh": 2677,
      "ĠCap": 2678,
      "Ġinconsistent": 2679,
      "enditures": 2680,
      "Ġattribut": 2681,
      "Ġattem": 2682,
      "Ġexpire": 2683,
      "Ġexpenditures": 2684,
      "ouble": 2685,
      "ĠMarket": 2686,
      "Ġequally": 2687,
      "Ġtrades": 2688,
      "ffett": 2689,
      "Ġsupp": 2690,
      "Ġsuitable": 2691,
      "Ġcalculates": 2692,
      "pects": 2693,
      "pected": 2694,
      "Ġreli": 2695,
      "Ġrelies": 2696,
      "Ġothers": 2697,
      "Ġadded": 2698,
      "Ġaddition": 2699,
      "ĠWe": 2700,
      "izing": 2701,
      "Ġlowest": 2702,
      "Ġimplies": 2703,
      "ĠHarry": 2704,
      "Ġassumed": 2705,
      "ĠInvesting": 2706,
      "Ġlead": 2707,
      "money": 2708,
      "Ġindicator": 2709,
      "Ġinterested": 2710,
      "Ġoutcome": 2711,
      "Ġoutperform": 2712,
      "Ġsimple": 2713,
      "Ġpoor": 2714,
      "Ġrepresented": 2715,
      "ĠGrowth": 2716,
      "Ġgenerating": 2717,
      "Ġmeasured": 2718,
      "holder": 2719,
      "ĠNot": 2720,
      "ĠAsset": 2721,
      "Ġprojection": 2722,
      "Ġcli": 2723,
      "Ġclick": 2724,
      "Ġbenchmarks": 2725,
      "Ġplan": 2726,
      "Ġplay": 2727,
      "Ġproducer": 2728,
      "Ġevaluated": 2729,
      "Ġkind": 2730,
      "ÃĹ(": 2731,
      "Ġmatch": 2732,
      "Ġspecified": 2733,
      "Ġfee": 2734,
      "Ġinvent": 2735,
      "Ġregardless": 2736,
      "Ġactive": 2737,
      "Ġspending": 2738,
      "Ġnormally": 2739,
      "Ġlimitation": 2740,
      "Ġseem": 2741,
      "Ġtechnical": 2742,
      "Ġtechnology": 2743,
      "Ġinvolve": 2744,
      "Ġ30": 2745,
      "Ġliquid": 2746,
      "Ġprobable": 2747,
      "Ġtrying": 2748,
      "Ġdesigned": 2749,
      "Ġenh": 2750,
      "Ġgets": 2751,
      "Ġfav": 2752,
      "Ġexplained": 2753,
      "pril": 2754,
      "Ġsmaller": 2755,
      "ĠConversely": 2756,
      "serv": 2757,
      "Ġextend": 2758,
      "Ġyields": 2759,
      "Ġchoice": 2760,
      "Ġ\\\\&\\": 2761,
      "Ġsold": 2762,
      "Ġinfl": 2763,
      "Ġ40": 2764,
      "Ġtheoretically": 2765,
      "Ġpeer": 2766,
      "Ġpeers": 2767,
      "Ġelimin": 2768,
      "Ġclosely": 2769,
      "Ġoffers": 2770,
      "Ġdefault": 2771,
      "Ġbuilt": 2772,
      "ĠDelta": 2773,
      "Ġaccurately": 2774,
      "Ġaccuracy": 2775,
      "Ġpreferred": 2776,
      "Ġreflects": 2777,
      "Ġinstrument": 2778,
      "clus": 2779,
      "Ġpractices": 2780,
      "Ġbehind": 2781,
      "Ġallows": 2782,
      "Ġadjusting": 2783,
      "Ġcriticis": 2784,
      "Ġmeaningful": 2785,
      "Ġadvisor": 2786,
      "Ġadvisors": 2787,
      "forward": 2788,
      "Ġutil": 2789,
      "Ġsomething": 2790,
      "Ġthought": 2791,
      "Ġbelieve": 2792,
      "Ġbelieves": 2793,
      "Ġexcluding": 2794,
      "ĠCalculation": 2795,
      "Ġmaximum": 2796,
      "Ġbrokerage": 2797,
      "Ġidea": 2798,
      "Ġsteps": 2799,
      "Ġincreasingly": 2800,
      "Ġaverages": 2801,
      "Ġflood": 2802,
      "Ġdraw": 2803,
      "Ġissue": 2804,
      "Ġlenders": 2805,
      "Ġguarante": 2806,
      "Ġclasses": 2807,
      "Ġopportunity": 2808,
      "Ġcontrol": 2809,
      "Ġearly": 2810,
      "Ġroot": 2811,
      "Ġnamed": 2812,
      "Ġprotection": 2813,
      "Ġalongside": 2814,
      "ĠCorrelation": 2815,
      "ĠMicros": 2816,
      "ĠBuffett": 2817,
      "Ġquarters": 2818,
      "Ġframework": 2819,
      "Ġprofessional": 2820,
      "Ġillustr": 2821,
      "Ġensure": 2822,
      "Ġfrequent": 2823,
      "Ġmitigate": 2824,
      "Ġlittle": 2825,
      "Ġexchanges": 2826,
      "Ġitems": 2827,
      "Ġleveraged": 2828,
      "Ġservice": 2829,
      "Ġquickly": 2830,
      "ĠExamples": 2831,
      "Ġintervals": 2832,
      "Ġjudge": 2833,
      "Ġsustainable": 2834,
      "Ġtarget": 2835,
      "Ġcumulative": 2836,
      "Ġsentiment": 2837,
      "Ġskew": 2838,
      "Ġpolic": 2839,
      "Ġfaster": 2840,
      "Ġconduct": 2841,
      "Ġattempt": 2842,
      "ĠMicrosoft": 2843,
      "))": 2844,
      ")âĢĭ": 2845,
      "+(": 2846,
      "05": 2847,
      "13": 2848,
      "16": 2849,
      "19": 2850,
      "24": 2851,
      "62": 2852,
      "97": 2853,
      "AA": 2854,
      "Beta": 2855,
      "CV": 2856,
      "Co": 2857,
      "Cost": 2858,
      "Cov": 2859,
      "Covariance": 2860,
      "EV": 2861,
      "ETF": 2862,
      "Me": 2863,
      "Mutual": 2864,
      "NPM": 2865,
      "OA": 2866,
      "OTC": 2867,
      "RR": 2868,
      "St": 2869,
      "TR": 2870,
      "TTM": 2871,
      "Tax": 2872,
      "Variance": 2873,
      "_{": 2874,
      "average": 2875,
      "cal": 2876,
      "da": 2877,
      "eb": 2878,
      "ew": 2879,
      "flow": 2880,
      "good": 2881,
      "how": 2882,
      "iam": 2883,
      "ls": 2884,
      "look": 2885,
      "llect": 2886,
      "nt": 2887,
      "nment": 2888,
      "rf": 2889,
      "ris": 2890,
      "right": 2891,
      "rize": 2892,
      "ses": 2893,
      "sion": 2894,
      "tled": 2895,
      "volat": 2896,
      "wise": 2897,
      "ycl": 2898,
      "}&": 2899,
      "»¿": 2900,
      "Â©": 2901,
      "ï»¿": 2902,
      "Ġ,": 2903,
      "Ġult": 2904,
      "ĠÂ©": 2905,
      "Ġaut": 2906,
      "Ġaway": 2907,
      "ined": 2908,
      "ath": 2909,
      "atform": 2910,
      "Ġcent": 2911,
      "Ġcle": 2912,
      "Ġcateg": 2913,
      "Ġcycl": 2914,
      "ering": 2915,
      "erive": 2916,
      "ishes": 2917,
      "Ġsquared": 2918,
      "Ġsix": 2919,
      "Ġsense": 2920,
      "ale": 2921,
      "aling": 2922,
      "oring": 2923,
      "Ġpow": 2924,
      "Ġpost": 2925,
      "its": 2926,
      "ited": 2927,
      "Ġfull": 2928,
      "Ġbr": 2929,
      "Ġbough": 2930,
      "enced": 2931,
      "ingo": 2932,
      "Ġdom": 2933,
      "Ġderive": 2934,
      "oment": 2935,
      "omber": 2936,
      "Ġrose": 2937,
      "Ġrational": 2938,
      "Ġranges": 2939,
      "Ġrole": 2940,
      "Ġrevi": 2941,
      "Ġrese": 2942,
      "Ġthing": 2943,
      "Ġthings": 2944,
      "Ġvis": 2945,
      "ctive": 2946,
      "Ġpriv": 2947,
      "Ġled": 2948,
      "Ġlot": 2949,
      "Ġlose": 2950,
      "Ġlingo": 2951,
      "Ġstability": 2952,
      "Ġbeat": 2953,
      "utral": 2954,
      "oses": 2955,
      "imal": 2956,
      "ĠTheir": 2957,
      "Ġdeci": 2958,
      "ptimal": 2959,
      "respon": 2960,
      "Ġinvested": 2961,
      "ĠIs": 2962,
      "ĠITM": 2963,
      "left": 2964,
      "Ġorder": 2965,
      "cember": 2966,
      "orted": 2967,
      "ortions": 2968,
      "Ġgold": 2969,
      "deriv": 2970,
      "ĠAp": 2971,
      "ĠATM": 2972,
      "ĠAug": 2973,
      "ĠApril": 2974,
      "vernment": 2975,
      "Ġassign": 2976,
      "urnal": 2977,
      "Ġconserv": 2978,
      "pec": 2979,
      "ocks": 2980,
      "arent": 2981,
      "Ġalone": 2982,
      "Ġyet": 2983,
      "illiam": 2984,
      "ĠRho": 2985,
      "ĠCF": 2986,
      "ĠCash": 2987,
      "ĠCorpor": 2988,
      "Ġ16": 2989,
      "Ġunf": 2990,
      "Ġunp": 2991,
      "ĠInterest": 2992,
      "arios": 2993,
      "Ġincur": 2994,
      "ĠPut": 2995,
      "ĠPro": 2996,
      "ĠPrize": 2997,
      "vior": 2998,
      "Ġtraditional": 2999,
      "Ġwhereas": 3000,
      "ĠBlo": 3001,
      "ĠBusiness": 3002,
      "ĠBoth": 3003,
      "istic": 3004,
      "Ġsuccess": 3005,
      "Ġheav": 3006,
      "Ġhaving": 3007,
      "sider": 3008,
      "ĠThus": 3009,
      "Ġnotably": 3010,
      "aps": 3011,
      "Ġearning": 3012,
      "Ġaccording": 3013,
      "Ġprevail": 3014,
      "Ġanalyst": 3015,
      "Ġtail": 3016,
      "ĠWor": 3017,
      "ĠWilliam": 3018,
      "Ġshareholder": 3019,
      "izes": 3020,
      "Ġmanually": 3021,
      "Ġcorrespon": 3022,
      "Ġmakers": 3023,
      "ĠHist": 3024,
      "ĠForward": 3025,
      "Ġwebs": 3026,
      "Ġweather": 3027,
      "Ġinteg": 3028,
      "Ġintellect": 3029,
      "Ġassuming": 3030,
      "Ġassumption": 3031,
      "Ġleft": 3032,
      "ady": 3033,
      "Ġestabl": 3034,
      "Ġ28": 3035,
      "Ġdiscus": 3036,
      "enerally": 3037,
      "ired": 3038,
      "ĠOf": 3039,
      "ĠOption": 3040,
      "Ġcorrelations": 3041,
      "ĠGenerally": 3042,
      "Ġcover": 3043,
      "Ġbasic": 3044,
      "etermined": 3045,
      "Ġpayment": 3046,
      "Ġsample": 3047,
      "Ġdetermined": 3048,
      "Ġdetermination": 3049,
      "Ġresulting": 3050,
      "Ġdecay": 3051,
      "Ġdecid": 3052,
      "Ġagre": 3053,
      "Ġaggress": 3054,
      "Ġshouldn": 3055,
      "Ġserve": 3056,
      "Ġserial": 3057,
      "Ġindexes": 3058,
      "Ġparticip": 3059,
      "rupt": 3060,
      "Ġputs": 3061,
      "Ġupside": 3062,
      "Ġnumerator": 3063,
      "Ġpredetermined": 3064,
      "entially": 3065,
      "ĠStill": 3066,
      "ĠStates": 3067,
      "Ġplatform": 3068,
      "Ġquest": 3069,
      "Ġpredictable": 3070,
      "Ġpredictions": 3071,
      "Ġnote": 3072,
      "ĠLi": 3073,
      "Ġpurp": 3074,
      "Ġworthwhile": 3075,
      "ĠComm": 3076,
      "ĠJim": 3077,
      "Ġcomparable": 3078,
      "Ġgreatest": 3079,
      "tained": 3080,
      "Ġregular": 3081,
      "Ġregulated": 3082,
      "Ġneeded": 3083,
      "Ġlimited": 3084,
      "Ġseek": 3085,
      "Ġrealized": 3086,
      "Ġstatements": 3087,
      "Ġdiversified": 3088,
      "Ġ2024": 3089,
      "ĠUnited": 3090,
      "Ġspecifications": 3091,
      "ividend": 3092,
      "Ġapplies": 3093,
      "Ġapplications": 3094,
      "Ġadvant": 3095,
      "Ġwanted": 3096,
      "Ġenough": 3097,
      "Ġstatistics": 3098,
      "Ġcommit": 3099,
      "Ġcommiss": 3100,
      "Ġgoals": 3101,
      "Ġgovernment": 3102,
      "Ġspeculation": 3103,
      "Ġsym": 3104,
      "Ġ197": 3105,
      "Ġexplains": 3106,
      "ĠOnce": 3107,
      "ĠConvertible": 3108,
      "ĠConsider": 3109,
      "Ġcreated": 3110,
      "Ġcreating": 3111,
      "ishing": 3112,
      "Ġsubtracting": 3113,
      "Ġsubtracted": 3114,
      "Ġspreads": 3115,
      "Ġsolid": 3116,
      "Ġeffective": 3117,
      "Ġsumm": 3118,
      "Ġintangible": 3119,
      "Ġproportions": 3120,
      "ĠDecember": 3121,
      "Ġaccurate": 3122,
      "Ġentirely": 3123,
      "Ġreflected": 3124,
      "expected": 3125,
      "Ġeasily": 3126,
      "Ġpopulation": 3127,
      "Ġtechniques": 3128,
      "Ġgraphically": 3129,
      "world": 3130,
      "Ġconcepts": 3131,
      "Ġagreements": 3132,
      "Ġobserv": 3133,
      "Ġcounterparties": 3134,
      "Ġutilities": 3135,
      "Ġrevenues": 3136,
      "Ġreasons": 3137,
      "Ġexcludes": 3138,
      "ĠCalculating": 3139,
      "Ġclosed": 3140,
      "Ġquantity": 3141,
      "Ġentering": 3142,
      "Ġcommodities": 3143,
      "Ġbenefits": 3144,
      "Ġborrowing": 3145,
      "ĠFrank": 3146,
      "Ġscenarios": 3147,
      "Ġcustomized": 3148,
      "backs": 3149,
      "Ġcollect": 3150,
      "Ġacceptable": 3151,
      "Ġopportunities": 3152,
      "Ġcontrast": 3153,
      "Ġachieve": 3154,
      "Ġinputs": 3155,
      "Ġexperience": 3156,
      "ĠHere": 3157,
      "Ġbehavior": 3158,
      "Ġdescribes": 3159,
      "Ġsource": 3160,
      "Ġreferred": 3161,
      "Ġlater": 3162,
      "Ġcomponent": 3163,
      "Ġproblems": 3164,
      "Ġseasonality": 3165,
      "ĠMoreover": 3166,
      "Ġhappen": 3167,
      "ĠNext": 3168,
      "Ġtransact": 3169,
      "erences": 3170,
      "Ġignores": 3171,
      "Ġcomplet": 3172,
      "Ġmanufacturing": 3173,
      "Ġdepreciated": 3174,
      "Ġrespectively": 3175,
      "Ġresponse": 3176,
      "}\\\\&\\": 3177,
      "Ġcontinue": 3178,
      "Ġacquisitions": 3179,
      "crete": 3180,
      "munications": 3181,
      "Ġslope": 3182,
      "ordon": 3183,
      "Ġprospects": 3184,
      "Ġbeginning": 3185,
      "ĠAccording": 3186,
      "Ġconditions": 3187,
      "Ġclients": 3188,
      "Ġfavor": 3189,
      "Ġcriticisms": 3190,
      "Ġpolicy": 3191,
      "AAP": 3192,
      "CVT": 3193,
      "Measure": 3194,
      "volatility": 3195,
      "Ġultim": 3196,
      "Ġpower": 3197,
      "Ġbought": 3198,
      "omberg": 3199,
      "Ġreview": 3200,
      "Ġdecide": 3201,
      "Ġconservative": 3202,
      "ĠBloomberg": 3203,
      "Ġprevailing": 3204,
      "Ġintellectual": 3205,
      "Ġparticipants": 3206,
      "Ġplatforms": 3207,
      "%âĪĴ": 3208,
      "($": 3209,
      "):": 3210,
      ")âĪĴ": 3211,
      ",âĢĿ": 3212,
      ".)": 3213,
      "07": 3214,
      "516": 3215,
      "67": 3216,
      "68": 3217,
      "78": 3218,
      "780": 3219,
      "82": 3220,
      "95": 3221,
      ":}\\\\": 3222,
      "=(": 3223,
      "CME": 3224,
      "DP": 3225,
      "DX": 3226,
      "DEV": 3227,
      "EBIT": 3228,
      "ESM": 3229,
      "GAAP": 3230,
      "IC": 3231,
      "IM": 3232,
      "In": 3233,
      "OIC": 3234,
      "Pont": 3235,
      "Portfolio": 3236,
      "Pearson": 3237,
      "Rm": 3238,
      "RIM": 3239,
      "Total": 3240,
      "TDEV": 3241,
      "UR": 3242,
      "[($": 3243,
      "\\&": 3244,
      "af": 3245,
      "aim": 3246,
      "air": 3247,
      "bo": 3248,
      "by": 3249,
      "bal": 3250,
      "bit": 3251,
      "bol": 3252,
      "book": 3253,
      "bda": 3254,
      "cant": 3255,
      "den": 3256,
      "date": 3257,
      "divers": 3258,
      "data": 3259,
      "erent": 3260,
      "eking": 3261,
      "ered": 3262,
      "equity": 3263,
      "fit": 3264,
      "go": 3265,
      "gy": 3266,
      "gers": 3267,
      "gain": 3268,
      "gage": 3269,
      "growth": 3270,
      "hn": 3271,
      "ient": 3272,
      "iately": 3273,
      "iang": 3274,
      "jun": 3275,
      "kn": 3276,
      "ked": 3277,
      "les": 3278,
      "ling": 3279,
      "lier": 3280,
      "limit": 3281,
      "man": 3282,
      "market": 3283,
      "moment": 3284,
      "ne": 3285,
      "net": 3286,
      "ok": 3287,
      "oes": 3288,
      "ote": 3289,
      "ove": 3290,
      "oint": 3291,
      "optimal": 3292,
      "ps": 3293,
      "pre": 3294,
      "pal": 3295,
      "par": 3296,
      "pense": 3297,
      "point": 3298,
      "qrt": 3299,
      "rin": 3300,
      "rike": 3301,
      "rates": 3302,
      "rong": 3303,
      "roll": 3304,
      "rins": 3305,
      "spect": 3306,
      "sqrt": 3307,
      "tom": 3308,
      "tign": 3309,
      "ticip": 3310,
      "uPont": 3311,
      "vature": 3312,
      "will": 3313,
      "waps": 3314,
      "xis": 3315,
      "xury": 3316,
      "yste": 3317,
      "yond": 3318,
      "}(": 3319,
      "Îĵ": 3320,
      "ÎĶ": 3321,
      "Îĺ": 3322,
      "Ġer": 3323,
      "Ġener": 3324,
      "Ġero": 3325,
      "Ġ[($": 3326,
      "Ġtied": 3327,
      "Ġaxis": 3328,
      "hest": 3329,
      "hela": 3330,
      "ines": 3331,
      "inom": 3332,
      "income": 3333,
      "inite": 3334,
      "reg": 3335,
      "ream": 3336,
      "reward": 3337,
      "Ġtheories": 3338,
      "atis": 3339,
      "Ġche": 3340,
      "Ġcore": 3341,
      "Ġcarr": 3342,
      "Ġcapt": 3343,
      "Ġcris": 3344,
      "era": 3345,
      "Ġsur": 3346,
      "Ġsav": 3347,
      "Ġslight": 3348,
      "Ġsatis": 3349,
      "alf": 3350,
      "order": 3351,
      "Ġpap": 3352,
      "itors": 3353,
      "Ġfat": 3354,
      "Ġbre": 3355,
      "Ġbit": 3356,
      "Ġbot": 3357,
      "Ġbill": 3358,
      "ingu": 3359,
      "Ġanticip": 3360,
      "Ġdimin": 3361,
      "Ġdouble": 3362,
      "Ġwi": 3363,
      "Ġwors": 3364,
      "Ġwrong": 3365,
      "ica": 3366,
      "icol": 3367,
      "icke": 3368,
      "icag": 3369,
      "Ġtoward": 3370,
      "Ġev": 3371,
      "Ġeur": 3372,
      "Ġeps": 3373,
      "etas": 3374,
      "Ġra": 3375,
      "Ġrul": 3376,
      "Ġrank": 3377,
      "Ġrever": 3378,
      "Ġrepe": 3379,
      "Ġrest": 3380,
      "Ġrepl": 3381,
      "Ġreso": 3382,
      "Ġreme": 3383,
      "Ġreinvest": 3384,
      "asset": 3385,
      "assum": 3386,
      "ulie": 3387,
      "ulner": 3388,
      "Ġvia": 3389,
      "Ġvice": 3390,
      "Ġvomma": 3391,
      "Ġvera": 3392,
      "Ġvulner": 3393,
      "ctual": 3394,
      "ĠTc": 3395,
      "ĠTwo": 3396,
      "ĠTyp": 3397,
      "Ġprim": 3398,
      "ilon": 3399,
      "ivities": 3400,
      "urse": 3401,
      "urrent": 3402,
      "Ġlam": 3403,
      "Ġlost": 3404,
      "estic": 3405,
      "Ġste": 3406,
      "Ġstand": 3407,
      "Ġhalf": 3408,
      "Ġbear": 3409,
      "Ġbeyond": 3410,
      "Ġcoming": 3411,
      "Ġexclus": 3412,
      "Ġnu": 3413,
      "Ġnor": 3414,
      "Ġnicke": 3415,
      "Ġonce": 3416,
      "Ġforced": 3417,
      "Ġdemon": 3418,
      "ĠIV": 3419,
      "ĠICVT": 3420,
      "lection": 3421,
      "leading": 3422,
      "alue": 3423,
      "igher": 3424,
      "ceived": 3425,
      "debt": 3426,
      "Ġgam": 3427,
      "Ġvaluations": 3428,
      "Ġriskiness": 3429,
      "derate": 3430,
      "ĠAt": 3431,
      "ĠAll": 3432,
      "ĠARIM": 3433,
      "Ġproxy": 3434,
      "ifies": 3435,
      "ifically": 3436,
      "Ġconsum": 3437,
      "Ġconclu": 3438,
      "Ġconjun": 3439,
      "pecul": 3440,
      "Ġarea": 3441,
      "abet": 3442,
      "abrin": 3443,
      "Ġmoved": 3444,
      "Ġmoving": 3445,
      "Ġmoderate": 3446,
      "ĠScholes": 3447,
      "ĠSTDEV": 3448,
      "ĠSpre": 3449,
      "ĠSwaps": 3450,
      "ĠSabrin": 3451,
      "essica": 3452,
      "Ġalph": 3453,
      "uman": 3454,
      "umber": 3455,
      "ĠFam": 3456,
      "ĠFeb": 3457,
      "ĠEV": 3458,
      "ands": 3459,
      "Ġperspect": 3460,
      "ĠRd": 3461,
      "Ġwhole": 3462,
      "ĠCo": 3463,
      "ĠCost": 3464,
      "ĠCheck": 3465,
      "ĠCovariance": 3466,
      "urer": 3467,
      "Ġuns": 3468,
      "Ġunit": 3469,
      "Ġunlimit": 3470,
      "ĠInc": 3471,
      "ĠInstead": 3472,
      "stone": 3473,
      "strates": 3474,
      "rench": 3475,
      "ially": 3476,
      "ĠPMPT": 3477,
      "ĠMay": 3478,
      "seeking": 3479,
      "Ġbetas": 3480,
      "ĠBang": 3481,
      "ĠBond": 3482,
      "ĠBetas": 3483,
      "Ġsufficient": 3484,
      "Ġsuppose": 3485,
      "Ġfinal": 3486,
      "Ġunderperform": 3487,
      "agement": 3488,
      "that": 3489,
      "Ġchance": 3490,
      "siz": 3491,
      "Ġnever": 3492,
      "iday": 3493,
      "Ġrelate": 3494,
      "Ġrelates": 3495,
      "ĠDiff": 3496,
      "ĠDividend": 3497,
      "ĠDuPont": 3498,
      "Ġaccom": 3499,
      "Ġaccel": 3500,
      "Ġhasn": 3501,
      "ĠIts": 3502,
      "Ġprecis": 3503,
      "Ġwouldn": 3504,
      "Ġbuys": 3505,
      "ĠWhe": 3506,
      "izable": 3507,
      "Ġmodeling": 3508,
      "Ġexamining": 3509,
      "acter": 3510,
      "Ġchanging": 3511,
      "Ġmanip": 3512,
      "Ġimmed": 3513,
      "Ġcorner": 3514,
      "Ġdiffer": 3515,
      "Ġdiffers": 3516,
      "rodu": 3517,
      "Ġdepict": 3518,
      "Ġdiver": 3519,
      "Ġlearn": 3520,
      "advant": 3521,
      "Ġcalls": 3522,
      "Ġ23": 3523,
      "Ġ2000": 3524,
      "Ġdisrupt": 3525,
      "Ġdisadvant": 3526,
      "Ġhighest": 3527,
      "ibility": 3528,
      "tensive": 3529,
      "ĠOla": 3530,
      "ĠOperating": 3531,
      "Ġhedges": 3532,
      "Ġhedged": 3533,
      "Ġcurvature": 3534,
      "Ġcorrelates": 3535,
      "ciences": 3536,
      "ĠGordon": 3537,
      "Ġgenerates": 3538,
      "Ġgenerous": 3539,
      "Ġformer": 3540,
      "ensen": 3541,
      "ĠUse": 3542,
      "Ġsampl": 3543,
      "Ġdetermines": 3544,
      "fully": 3545,
      "Ġdifferently": 3546,
      "Ġdifferential": 3547,
      "upon": 3548,
      "ĠAny": 3549,
      "aging": 3550,
      "Ġparty": 3551,
      "Ġupward": 3552,
      "Ġefficiently": 3553,
      "Ġanything": 3554,
      "ails": 3555,
      "Ġworks": 3556,
      "Ġworry": 3557,
      "Ġplant": 3558,
      "Ġplotted": 3559,
      "Ġassessed": 3560,
      "Ġcurrently": 3561,
      "Ġoperates": 3562,
      "Ġoperational": 3563,
      "ĠExpense": 3564,
      "Ġpredicts": 3565,
      "Ġdistingu": 3566,
      "Ġ2019": 3567,
      "ÃĹâĪĳ(": 3568,
      "Ġhistory": 3569,
      "Ġarg": 3570,
      "Ġaround": 3571,
      "Ġapply": 3572,
      "Ġapparent": 3573,
      "ĠValue": 3574,
      "matically": 3575,
      "step": 3576,
      "ĠJiang": 3577,
      "ĠJulie": 3578,
      "ĠJessica": 3579,
      "ĠJensen": 3580,
      "Ġfeature": 3581,
      "Ġpurchases": 3582,
      "Ġsubst": 3583,
      "Ġactually": 3584,
      "Ġactivities": 3585,
      "ĠYour": 3586,
      "Ġmanaged": 3587,
      "Ġsettle": 3588,
      "Ġdistributed": 3589,
      "Ġseeks": 3590,
      "Ġapproac": 3591,
      "508": 3592,
      "Ġdiversify": 3593,
      "Ġ2023": 3594,
      "Ġforecasts": 3595,
      "Ġforecasted": 3596,
      "Ġsmart": 3597,
      "Ġadvice": 3598,
      "Ġtrust": 3599,
      "Ġnonlinear": 3600,
      "Ġengine": 3601,
      "Ġgoes": 3602,
      "Ġgoing": 3603,
      "Ġspeculating": 3604,
      "Ġbargain": 3605,
      "Ġwriting": 3606,
      "prise": 3607,
      "Ġzomma": 3608,
      "ĠContract": 3609,
      "Ġdifferences": 3610,
      "Ġcreates": 3611,
      "Ġmaintain": 3612,
      "Ġchoosing": 3613,
      "Ġoptimize": 3614,
      "Ġaffects": 3615,
      "Ġswings": 3616,
      "Ġsolely": 3617,
      "Ġpatents": 3618,
      "Ġinfinite": 3619,
      "Ġreporting": 3620,
      "Ġsystem": 3621,
      "Ġsensitive": 3622,
      "Ġintrins": 3623,
      "Ġintrodu": 3624,
      "Ġfits": 3625,
      "ometimes": 3626,
      "Ġversa": 3627,
      "Ġstartup": 3628,
      "Ġmispric": 3629,
      "Ġmisleading": 3630,
      "Ġremove": 3631,
      "Ġdefinition": 3632,
      "Ġproposed": 3633,
      "ĠDec": 3634,
      "Ġconstantly": 3635,
      "Ġcombinations": 3636,
      "Ġobtained": 3637,
      "Ġinitially": 3638,
      "Ġadjustments": 3639,
      "Ġreceiving": 3640,
      "ĠKey": 3641,
      "Ġidentical": 3642,
      "Ġtends": 3643,
      "Ġcritical": 3644,
      "Ġlinked": 3645,
      "Ġimproves": 3646,
      "Ġdecision": 3647,
      "Ġcomparisons": 3648,
      "Ġdelivering": 3649,
      "Ġinterpret": 3650,
      "Ġboost": 3651,
      "Ġexists": 3652,
      "ĠImage": 3653,
      "ĠManagement": 3654,
      "selling": 3655,
      "Ġaddress": 3656,
      "Ġmaximize": 3657,
      "Ġcloser": 3658,
      "Ġclosing": 3659,
      "Ġquantify": 3660,
      "Ġenterprise": 3661,
      "ĠFrom": 3662,
      "ĠETFs": 3663,
      "Ġperpetual": 3664,
      "ĠMean": 3665,
      "Ġfunctions": 3666,
      "Ġfundamentals": 3667,
      "Ġminimal": 3668,
      "Ġminimum": 3669,
      "Ġminimize": 3670,
      "ĠTreasurys": 3671,
      "ĠQual": 3672,
      "Ġjo": 3673,
      "Ġpublished": 3674,
      "Ġprinciple": 3675,
      "Ġprinciples": 3676,
      "Ġprincipal": 3677,
      "ĠModern": 3678,
      "ĠButtign": 3679,
      "Ġaccepted": 3680,
      "Ġdeclining": 3681,
      "Ġartific": 3682,
      "Ġremaining": 3683,
      "Ġdeducting": 3684,
      "Ġachieved": 3685,
      "Ġearlier": 3686,
      "Ġeverything": 3687,
      "Ġname": 3688,
      "ĠEBITA": 3689,
      "ĠMichela": 3690,
      "linearity": 3691,
      "Ġdescribe": 3692,
      "Ġchallenge": 3693,
      "Ġaims": 3694,
      "Ġsources": 3695,
      "Ġinternal": 3696,
      "arching": 3697,
      "Ġreveal": 3698,
      "Ġreveals": 3699,
      "Ġlatter": 3700,
      "Ġcomponents": 3701,
      "Ġproblem": 3702,
      "ĠFinally": 3703,
      "Ġincorporates": 3704,
      "Ġhappens": 3705,
      "Ġcharges": 3706,
      "Ġcharacter": 3707,
      "Ġapproximate": 3708,
      "Ġapproximately": 3709,
      "Ġoffsetting": 3710,
      "306": 3711,
      "727": 3712,
      "Ġemploy": 3713,
      "Ġlisted": 3714,
      "Ġlognormal": 3715,
      "Ġcompetitors": 3716,
      "Ġcompensated": 3717,
      "ĠPricing": 3718,
      "ĠMerton": 3719,
      "ĠMercant": 3720,
      "ĠDepreciation": 3721,
      "ĠDepending": 3722,
      "Ġmultiply": 3723,
      "Ġmultiplying": 3724,
      "Ġobjective": 3725,
      "ĠJournal": 3726,
      "ĠJohn": 3727,
      "Ġdevelopment": 3728,
      "Ġdispersion": 3729,
      "Ġdispersed": 3730,
      "Ġphysical": 3731,
      "Ġphysics": 3732,
      "Ġoccur": 3733,
      "Ġdidn": 3734,
      "Ġluxury": 3735,
      "Ġstraight": 3736,
      "Ġcomprehensive": 3737,
      "Ġdeeper": 3738,
      "ĠChicag": 3739,
      "ĠCapEx": 3740,
      "Ġattributable": 3741,
      "Ġplayers": 3742,
      "Ġinventory": 3743,
      "Ġliquidated": 3744,
      "Ġinflation": 3745,
      "Ġutilize": 3746,
      "Ġguaranteed": 3747,
      "Ġillustrate": 3748,
      "Ġfrequently": 3749,
      "Ġdomestic": 3750,
      "Ġresearch": 3751,
      "Ġvisual": 3752,
      "derivative": 3753,
      "ĠBusinesses": 3754,
      "Ġheavily": 3755,
      "ĠWorks": 3756,
      "Ġcorresponding": 3757,
      "Ġdiscussed": 3758,
      "Ġagreed": 3759,
      "Ġaggressive": 3760,
      "Ġquestion": 3761,
      "Ġadvantage": 3762,
      "Ġsymbol": 3763,
      "Ġobservations": 3764,
      "Ġcomplete": 3765,
      "Ġultima": 3766,
      "known": 3767,
      "ystematic": 3768,
      "Ġerr": 3769,
      "Ġenergy": 3770,
      "inomial": 3771,
      "Ġcarries": 3772,
      "Ġcrisis": 3773,
      "Ġpaper": 3774,
      "Ġbottom": 3775,
      "Ġworse": 3776,
      "icollinearity": 3777,
      "Ġepsilon": 3778,
      "Ġresour": 3779,
      "Ġremember": 3780,
      "Ġreinvested": 3781,
      "assuming": 3782,
      "Ġprimary": 3783,
      "Ġlambda": 3784,
      "Ġnickels": 3785,
      "Ġdemonstrates": 3786,
      "ĠARIMA": 3787,
      "Ġconclude": 3788,
      "Ġconjunction": 3789,
      "ĠSabrina": 3790,
      "Ġalphabet": 3791,
      "ĠFama": 3792,
      "Ġunlimited": 3793,
      "ĠDifferent": 3794,
      "Ġacceler": 3795,
      "Ġimmediately": 3796,
      "Ġcornerstone": 3797,
      "ĠOlah": 3798,
      "Ġapproaches": 3799,
      "Ġengineering": 3800,
      "Ġintrinsic": 3801,
      "Ġmispricings": 3802,
      "ĠButtignol": 3803,
      "ĠMercantile": 3804,
      "ĠChicago": 3805,
      "%)": 3806,
      "%âĢĭ=": 3807,
      ")=": 3808,
      ".âĢĿ": 3809,
      "11": 3810,
      "12": 3811,
      "18": 3812,
      "21": 3813,
      "250": 3814,
      "35": 3815,
      "48": 3816,
      "52": 3817,
      "57": 3818,
      "515": 3819,
      "66": 3820,
      "882": 3821,
      "AGR": 3822,
      "Actual": 3823,
      "BM": 3824,
      "BO": 3825,
      "BSM": 3826,
      "CO": 3827,
      "Cor": 3828,
      "Com": 3829,
      "Col": 3830,
      "Cap": 3831,
      "Call": 3832,
      "Corpor": 3833,
      "Current": 3834,
      "CAGR": 3835,
      "Dep": 3836,
      "Es": 3837,
      "Futures": 3838,
      "GS": 3839,
      "GDP": 3840,
      "IP": 3841,
      "Jen": 3842,
      "MH": 3843,
      "MM": 3844,
      "Mer": 3845,
      "Number": 3846,
      "Operating": 3847,
      "Pak": 3848,
      "ROA": 3849,
      "SD": 3850,
      "SE": 3851,
      "Sortino": 3852,
      "Sales": 3853,
      "TV": 3854,
      "Tree": 3855,
      "Treynor": 3856,
      "Time": 3857,
      "Un": 3858,
      "VD": 3859,
      "VE": 3860,
      "XP": 3861,
      "].": 3862,
      "ade": 3863,
      "ape": 3864,
      "ake": 3865,
      "aks": 3866,
      "acent": 3867,
      "aces": 3868,
      "aving": 3869,
      "but": 3870,
      "bble": 3871,
      "ca": 3872,
      "cas": 3873,
      "cut": 3874,
      "cies": 3875,
      "cum": 3876,
      "cure": 3877,
      "cost": 3878,
      "cro": 3879,
      "counter": 3880,
      "covariance": 3881,
      "dom": 3882,
      "dest": 3883,
      "dget": 3884,
      "em": 3885,
      "efficiency": 3886,
      "fr": 3887,
      "fort": 3888,
      "fill": 3889,
      "futures": 3890,
      "ferences": 3891,
      "gest": 3892,
      "gra": 3893,
      "gamma": 3894,
      "gence": 3895,
      "hat": 3896,
      "hou": 3897,
      "ior": 3898,
      "ian": 3899,
      "iers": 3900,
      "iable": 3901,
      "jie": 3902,
      "jacent": 3903,
      "kins": 3904,
      "locks": 3905,
      "min": 3906,
      "mes": 3907,
      "met": 3908,
      "more": 3909,
      "mall": 3910,
      "ns": 3911,
      "ny": 3912,
      "now": 3913,
      "nect": 3914,
      "oe": 3915,
      "ox": 3916,
      "ople": 3917,
      "ober": 3918,
      "operating": 3919,
      "ojie": 3920,
      "py": 3921,
      "ppl": 3922,
      "pro": 3923,
      "qi": 3924,
      "rp": 3925,
      "rho": 3926,
      "rateg": 3927,
      "rix": 3928,
      "ss": 3929,
      "sw": 3930,
      "sess": 3931,
      "spec": 3932,
      "sometimes": 3933,
      "tc": 3934,
      "tan": 3935,
      "tren": 3936,
      "then": 3937,
      "true": 3938,
      "uide": 3939,
      "ugg": 3940,
      "vis": 3941,
      "worth": 3942,
      "yron": 3943,
      "zon": 3944,
      "}}\\": 3945,
      "}}{\\": 3946,
      "Î½": 3947,
      "Ġ>": 3948,
      "Ġq": 3949,
      "Ġed": 3950,
      "Ġir": 3951,
      "ĠÏģ": 3952,
      "Ġï»¿": 3953,
      "Ġtit": 3954,
      "Ġtreat": 3955,
      "Ġack": 3956,
      "head": 3957,
      "inct": 3958,
      "ination": 3959,
      "inions": 3960,
      "inpoint": 3961,
      "intensive": 3962,
      "real": 3963,
      "rection": 3964,
      "ready": 3965,
      "atus": 3966,
      "atur": 3967,
      "atter": 3968,
      "atile": 3969,
      "atory": 3970,
      "Ġce": 3971,
      "Ġcou": 3972,
      "Ġcarry": 3973,
      "eral": 3974,
      "erial": 3975,
      "erks": 3976,
      "iscal": 3977,
      "isdom": 3978,
      "Ġsk": 3979,
      "Ġsl": 3980,
      "Ġsus": 3981,
      "Ġsoun": 3982,
      "Ġslow": 3983,
      "Ġspect": 3984,
      "Ġsyn": 3985,
      "Ġsaid": 3986,
      "Ġsale": 3987,
      "Ġsaf": 3988,
      "Ġsciences": 3989,
      "alk": 3990,
      "alent": 3991,
      "ork": 3992,
      "oric": 3993,
      "orage": 3994,
      "orough": 3995,
      "anill": 3996,
      "annual": 3997,
      "Ġpion": 3998,
      "Ġpres": 3999,
      "Ġplu": 4000,
      "Ġpinpoint": 4001,
      "itor": 4002,
      "iting": 4003,
      "itate": 4004,
      "itative": 4005,
      "Ġinverse": 4006,
      "Ġfed": 4007,
      "Ġfil": 4008,
      "Ġfam": 4009,
      "Ġflex": 4010,
      "Ġfiscal": 4011,
      "Ġbi": 4012,
      "Ġblu": 4013,
      "Ġbillion": 4014,
      "Ġbank": 4015,
      "Ġbinomial": 4016,
      "Ġblocks": 4017,
      "eness": 4018,
      "encing": 4019,
      "Ġmid": 4020,
      "arren": 4021,
      "arify": 4022,
      "Ġansw": 4023,
      "Ġdil": 4024,
      "Ġdim": 4025,
      "Ġdice": 4026,
      "Ġwon": 4027,
      "Ġwil": 4028,
      "Ġwid": 4029,
      "Ġwind": 4030,
      "Ġwarr": 4031,
      "Ġwalk": 4032,
      "icated": 4033,
      "icker": 4034,
      "Ġetc": 4035,
      "etric": 4036,
      "Ġriv": 4037,
      "Ġrough": 4038,
      "Ġrec": 4039,
      "Ġred": 4040,
      "Ġren": 4041,
      "Ġread": 4042,
      "Ġrecess": 4043,
      "Ġrecon": 4044,
      "Ġreac": 4045,
      "Ġrebal": 4046,
      "usion": 4047,
      "usive": 4048,
      "ussell": 4049,
      "Ġthreat": 4050,
      "Ġthorough": 4051,
      "ulate": 4052,
      "Ġvital": 4053,
      "Ġvast": 4054,
      "Ġvanill": 4055,
      "ĠTR": 4056,
      "ĠTTM": 4057,
      "ĠTax": 4058,
      "ĠTotal": 4059,
      "ĠTake": 4060,
      "Ġprint": 4061,
      "ili": 4062,
      "ivalent": 4063,
      "urt": 4064,
      "Ġlate": 4065,
      "Ġlack": 4066,
      "Ġlending": 4067,
      "Ġlosing": 4068,
      "Ġloses": 4069,
      "Ġask": 4070,
      "Ġstay": 4071,
      "Ġstage": 4072,
      "Ġstory": 4073,
      "Ġstret": 4074,
      "Ġstud": 4075,
      "Ġstoring": 4076,
      "Ġstatus": 4077,
      "Ġstorage": 4078,
      "Ġhard": 4079,
      "Ġhour": 4080,
      "Ġhope": 4081,
      "Ġhuman": 4082,
      "Ġbell": 4083,
      "Ġcomfort": 4084,
      "unday": 4085,
      "unexplained": 4086,
      "Ġexe": 4087,
      "Ġextra": 4088,
      "Ġexact": 4089,
      "Ġextern": 4090,
      "ossible": 4091,
      "Ġnatur": 4092,
      "Ġongo": 4093,
      "Ġcompound": 4094,
      "Ġcompute": 4095,
      "ĠThen": 4096,
      "Ġdev": 4097,
      "Ġdeploy": 4098,
      "Ġinvestig": 4099,
      "ĠIBM": 4100,
      "Ġorders": 4101,
      "rage": 4102,
      "Ġusers": 4103,
      "Ġusage": 4104,
      "Ġge": 4105,
      "Ġgained": 4106,
      "chip": 4107,
      "chCo": 4108,
      "ĠAI": 4109,
      "ĠAma": 4110,
      "ĠAfter": 4111,
      "ĠActive": 4112,
      "tel": 4113,
      "Ġassist": 4114,
      "Ġprogra": 4115,
      "ivered": 4116,
      "ifiable": 4117,
      "Ġretire": 4118,
      "Ġretained": 4119,
      "Ġconven": 4120,
      "Ġconvertible": 4121,
      "Ġconclus": 4122,
      "Ġcontained": 4123,
      "Ġconcrete": 4124,
      "Ġconnect": 4125,
      "oteric": 4126,
      "Ġreturnrf": 4127,
      "vember": 4128,
      "aying": 4129,
      "Ġstockholders": 4130,
      "Ġshift": 4131,
      "Ġshape": 4132,
      "ĠSer": 4133,
      "ĠSect": 4134,
      "ĠSales": 4135,
      "ĠSpr": 4136,
      "ĠSML": 4137,
      "ĠSGR": 4138,
      "ĠSpec": 4139,
      "ĠSpecul": 4140,
      "ĠSmall": 4141,
      "ĠSunday": 4142,
      "Ġsequ": 4143,
      "Ġsearching": 4144,
      "areown": 4145,
      "Ġalike": 4146,
      "Ġallo": 4147,
      "Ġaltern": 4148,
      "Ġalready": 4149,
      "umns": 4150,
      "ĠFlow": 4151,
      "ĠFurther": 4152,
      "ĠFDX": 4153,
      "ĠFrench": 4154,
      "ĠEvery": 4155,
      "ĠEUR": 4156,
      "ĠEXP": 4157,
      "ĠEss": 4158,
      "Ġperson": 4159,
      "Ġperceived": 4160,
      "amroll": 4161,
      "ĠReg": 4162,
      "ĠROA": 4163,
      "ĠRRR": 4164,
      "ĠROIC": 4165,
      "ĠRober": 4166,
      "ĠRussell": 4167,
      "ĠCan": 4168,
      "ĠCall": 4169,
      "ĠCross": 4170,
      "ĠCov": 4171,
      "Ġ13": 4172,
      "Ġunde": 4173,
      "Ġuncom": 4174,
      "Ġunlike": 4175,
      "Ġunivers": 4176,
      "Ġunreal": 4177,
      "ĠInter": 4178,
      "ĠInclu": 4179,
      "ounded": 4180,
      "ended": 4181,
      "ĠPay": 4182,
      "Ġmarketing": 4183,
      "Ġmeet": 4184,
      "trading": 4185,
      "ĠMyron": 4186,
      "Ġequities": 4187,
      "Ġequivalent": 4188,
      "Ġvariations": 4189,
      "Ġtraject": 4190,
      "second": 4191,
      "sequent": 4192,
      "lling": 4193,
      "ĠBased": 4194,
      "ĠBox": 4195,
      "istics": 4196,
      "Ġsuff": 4197,
      "Ġsuppl": 4198,
      "ĠrateÏĥ": 4199,
      "ĠrateÎ²": 4200,
      "Ġfinds": 4201,
      "Ġfinding": 4202,
      "Ġfinishing": 4203,
      "Ġunderst": 4204,
      "than": 4205,
      "Ġchart": 4206,
      "ĠThose": 4207,
      "ĠThough": 4208,
      "ored": 4209,
      "Ġbudget": 4210,
      "Ġneutral": 4211,
      "antial": 4212,
      "ancing": 4213,
      "ancial": 4214,
      "idance": 4215,
      "Ġearns": 4216,
      "Ġrelation": 4217,
      "Ġrelied": 4218,
      "ĠDown": 4219,
      "ĠDetermin": 4220,
      "ĠData": 4221,
      "ĠDoes": 4222,
      "Ġovercome": 4223,
      "Ġoverfit": 4224,
      "Ġpreferences": 4225,
      "Ġanalyses": 4226,
      "âĢĭï»¿": 4227,
      "Ġbuyout": 4228,
      "Ġexpecting": 4229,
      "Ġexpectation": 4230,
      "plic": 4231,
      "plus": 4232,
      "plest": 4233,
      "Ġvolatilities": 4234,
      "Ġotherwise": 4235,
      "Ġadapt": 4236,
      "Ġadjacent": 4237,
      "ĠWisdom": 4238,
      "ĠWarren": 4239,
      "Ġstrugg": 4240,
      "Ġshared": 4241,
      "related": 4242,
      "CFn": 4243,
      "Ġmeasuring": 4244,
      "Ġchanged": 4245,
      "Ġimage": 4246,
      "Ġimper": 4247,
      "Ġmacro": 4248,
      "Ġabnorm": 4249,
      "Ġabnormal": 4250,
      "ĠHigh": 4251,
      "ĠHans": 4252,
      "ĠHESM": 4253,
      "ĠHigher": 4254,
      "Ġweigh": 4255,
      "Ġweak": 4256,
      "Ġsells": 4257,
      "Ġprofiting": 4258,
      "Ġcostly": 4259,
      "Ġgrows": 4260,
      "Ġleading": 4261,
      "advis": 4262,
      "month": 4263,
      "Ġ24": 4264,
      "Ġ200": 4265,
      "Ġdiscl": 4266,
      "Ġdiscrete": 4267,
      "ossCo": 4268,
      "Ġrescal": 4269,
      "Ġdelivered": 4270,
      "Ġoutlin": 4271,
      "Ġoutput": 4272,
      "Ġoutli": 4273,
      "Ġoutlook": 4274,
      "Ġoutsiz": 4275,
      "Ġsimplest": 4276,
      "tenance": 4277,
      "ĠOTM": 4278,
      "ĠShort": 4279,
      "ĠShould": 4280,
      "ĠShareown": 4281,
      "Ġhighlight": 4282,
      "ableness": 4283,
      "Ġnetwork": 4284,
      "Ġrepresentation": 4285,
      "ĠGuide": 4286,
      "Ġcourse": 4287,
      "Ġ\\\\\\": 4288,
      "Ġexpirations": 4289,
      "Ġmeasurements": 4290,
      "Ġforms": 4291,
      "Ġdebts": 4292,
      "Ġimply": 4293,
      "Ġimpossible": 4294,
      "ensions": 4295,
      "Ġconsiders": 4296,
      "ĠUl": 4297,
      "ĠUses": 4298,
      "Ġpayable": 4299,
      "Ġpayout": 4300,
      "Ġpayoff": 4301,
      "Ġdoing": 4302,
      "hold": 4303,
      "Ġmonitor": 4304,
      "ĠNow": 4305,
      "ĠNPM": 4306,
      "ĠNex": 4307,
      "Ġdecline": 4308,
      "making": 4309,
      "ctions": 4310,
      "Ġdifferenti": 4311,
      "hout": 4312,
      "Ġclaim": 4313,
      "Ġclarify": 4314,
      "Ġhelped": 4315,
      "Ġnegatively": 4316,
      "marks": 4317,
      "oughout": 4318,
      "Ġtext": 4319,
      "Ġserious": 4320,
      "Ġmulticollinearity": 4321,
      "ague": 4322,
      "Ġbenchmarked": 4323,
      "redict": 4324,
      "Ġputting": 4325,
      "Ġprovided": 4326,
      "Ġperiodic": 4327,
      "Ġupfr": 4328,
      "Ġincluded": 4329,
      "Ġdivides": 4330,
      "Ġworld": 4331,
      "ĠStatist": 4332,
      "ĠStrateg": 4333,
      "Ġplot": 4334,
      "Ġplain": 4335,
      "Ġplans": 4336,
      "Ġplace": 4337,
      "Ġplaces": 4338,
      "Ġassessment": 4339,
      "iaojie": 4340,
      "iaqi": 4341,
      "ĠExplained": 4342,
      "Ġpredictor": 4343,
      "Ġpredictive": 4344,
      "Ġpredictors": 4345,
      "Ġevaluation": 4346,
      "ĠLock": 4347,
      "ĠLong": 4348,
      "ĠLossCo": 4349,
      "Ġdistort": 4350,
      "Ġdistinct": 4351,
      "Ġ2015": 4352,
      "Ġpotentially": 4353,
      "Ġarbit": 4354,
      "Ġforeign": 4355,
      "ĠXiaojie": 4356,
      "ĠAlso": 4357,
      "Ġtrademarks": 4358,
      "Ġminor": 4359,
      "Ġmatter": 4360,
      "Ġmatrix": 4361,
      "Ġmaterial": 4362,
      "ĠCommon": 4363,
      "ĠJan": 4364,
      "ĠJust": 4365,
      "ĠJack": 4366,
      "ĠJiaqi": 4367,
      "Ġentry": 4368,
      "Ġfell": 4369,
      "Ġshowing": 4370,
      "Ġimportance": 4371,
      "Ġregul": 4372,
      "Ġregard": 4373,
      "iveness": 4374,
      "Ġsubset": 4375,
      "Ġactivity": 4376,
      "Ġsocial": 4377,
      "whether": 4378,
      "Ġspot": 4379,
      "Ġbalanced": 4380,
      "ligible": 4381,
      "Ġsettled": 4382,
      "Ġvaries": 4383,
      "settled": 4384,
      "Ġrights": 4385,
      "Ġreceives": 4386,
      "Ġgoodness": 4387,
      "Ġgoodwill": 4388,
      "Ġdiverse": 4389,
      "Ġ2021": 4390,
      "Ġfalling": 4391,
      "ĠUnf": 4392,
      "Ġtechnically": 4393,
      "Ġ37": 4394,
      "Ġsignal": 4395,
      "outflow": 4396,
      "Ġbroad": 4397,
      "Ġbrokers": 4398,
      "ĠBefore": 4399,
      "Ġadvance": 4400,
      "Ġadvanced": 4401,
      "lines": 4402,
      "Ïĥs": 4403,
      "Ïĥx": 4404,
      "Ïĥy": 4405,
      "Ġtrouble": 4406,
      "Ġdesired": 4407,
      "Ġexcessive": 4408,
      "Ġanalyzed": 4409,
      "Ġdecreased": 4410,
      "Ġenable": 4411,
      "Ġengage": 4412,
      "Ġspeculators": 4413,
      "Ġfaces": 4414,
      "Ġwriters": 4415,
      "Ġ1950": 4416,
      "Ġ1952": 4417,
      "Ġ1966": 4418,
      "ĠAmortization": 4419,
      "Ġlargely": 4420,
      "Ġrequirements": 4421,
      "correlation": 4422,
      "ique": 4423,
      "iques": 4424,
      "Ġmaintenance": 4425,
      "Ġcombine": 4426,
      "Ġextent": 4427,
      "Ġgrain": 4428,
      "Ġcontribut": 4429,
      "Ġshorter": 4430,
      "Ġchoices": 4431,
      "Ġsubtracts": 4432,
      "Ġsignificance": 4433,
      "Ġoptimizing": 4434,
      "Ġsolar": 4435,
      "Ġpath": 4436,
      "Ġinformed": 4437,
      "Ġthrive": 4438,
      "Ġthroughout": 4439,
      "Ġ46": 4440,
      "Ġowed": 4441,
      "anged": 4442,
      "Ġpeak": 4443,
      "Ġpeople": 4444,
      "Ġintended": 4445,
      "Ġversion": 4446,
      "Ġversions": 4447,
      "Ġversatile": 4448,
      "Ġstarts": 4449,
      "Ġgrant": 4450,
      "Ġmissing": 4451,
      "Ġdays": 4452,
      "Ġremains": 4453,
      "Ġdefined": 4454,
      "Ġprocesses": 4455,
      "Ġbuilding": 4456,
      "Ġreflecting": 4457,
      "Ġdirections": 4458,
      "Ġdirectional": 4459,
      "Ġcombining": 4460,
      "Ġcombined": 4461,
      "sistently": 4462,
      "Ġobtains": 4463,
      "Ġscale": 4464,
      "Ġeasy": 4465,
      "Ġpractical": 4466,
      "Ġtracking": 4467,
      "Ġadjustment": 4468,
      "Ġarrived": 4469,
      "Ġfewer": 4470,
      "Ġreceivables": 4471,
      "Ġgraphic": 4472,
      "Ġowned": 4473,
      "bling": 4474,
      "Ġ70": 4475,
      "Ġsquares": 4476,
      "Ġfluctuate": 4477,
      "Ġfluctuates": 4478,
      "ortunate": 4479,
      "Ġcurrencies": 4480,
      "ĠNovember": 4481,
      "Ġmargins": 4482,
      "Ġstrengths": 4483,
      "Ġutility": 4484,
      "Ġreasonable": 4485,
      "Ġreasonableness": 4486,
      "Ġdemanding": 4487,
      "ĠSub": 4488,
      "ĠCalculate": 4489,
      "ĠManhat": 4490,
      "seller": 4491,
      "Ġhealthy": 4492,
      "Ġnecessary": 4493,
      "Ġmaximizes": 4494,
      "Ġquantitative": 4495,
      "ously": 4496,
      "ĠZhou": 4497,
      "ĠZoe": 4498,
      "Ġideal": 4499,
      "Ġideas": 4500,
      "Ġopinions": 4501,
      "Ġchecking": 4502,
      "Ġfocuses": 4503,
      "Ġborrows": 4504,
      "Ġborrowed": 4505,
      "Ġrewards": 4506,
      "ĠFriday": 4507,
      "ĠMeans": 4508,
      "ĠMeasure": 4509,
      "Ġnears": 4510,
      "Ġnearly": 4511,
      "âĢĭâĢĭ+(": 4512,
      "Ġworked": 4513,
      "Ġknowled": 4514,
      "Ġcustomers": 4515,
      "Ġcustomize": 4516,
      "Ġdollars": 4517,
      "Ġhypothesis": 4518,
      "Ġ68": 4519,
      "Ġesoteric": 4520,
      "Ġaveraging": 4521,
      "Ġcolumns": 4522,
      "ission": 4523,
      "Ġdramatically": 4524,
      "Ġissued": 4525,
      "ĠTrading": 4526,
      "Ġlender": 4527,
      "Ġguide": 4528,
      "Ġguidance": 4529,
      "Ġacquired": 4530,
      "ĠHedge": 4531,
      "Ġdeducts": 4532,
      "Ġdeducted": 4533,
      "ĠReturns": 4534,
      "Ġachieving": 4535,
      "ERi": 4536,
      "ERm": 4537,
      "Ġ95": 4538,
      "Ġcrude": 4539,
      "Ġfulfill": 4540,
      "Ġbigger": 4541,
      "Ġrobo": 4542,
      "Ġassociations": 4543,
      "Ġprotect": 4544,
      "ĠCorrection": 4545,
      "Ġexperienced": 4546,
      "Ġexperiencing": 4547,
      "Ġstructures": 4548,
      "Ġcorporation": 4549,
      "Ġcorrected": 4550,
      "Ġcorrectly": 4551,
      "Ġdirectly": 4552,
      "Ġbehave": 4553,
      "Ġbehaves": 4554,
      "Ġprofessionals": 4555,
      "Ġchallenges": 4556,
      "Ġchallenging": 4557,
      "GRW": 4558,
      "Ġinternational": 4559,
      "Ġrunning": 4560,
      "Ġrecently": 4561,
      "Ġcomputer": 4562,
      "Ġcomputing": 4563,
      "Ġconsistently": 4564,
      "Ġseasons": 4565,
      "ĠFinance": 4566,
      "ĠFinancial": 4567,
      "ĠRel": 4568,
      "ĠRead": 4569,
      "Ġincorporate": 4570,
      "Ġincorporating": 4571,
      "Ġattractive": 4572,
      "ĠStockholders": 4573,
      "Ġtradeoffs": 4574,
      "Ġmanagerial": 4575,
      "Ġexplaining": 4576,
      "Ġdrops": 4577,
      "oreseen": 4578,
      "Ïģxy": 4579,
      "Ġcarefully": 4580,
      "Ġcausation": 4581,
      "Ġviewed": 4582,
      "Ġexceed": 4583,
      "Ġexception": 4584,
      "Ġcomplicated": 4585,
      "Ġcompetition": 4586,
      "Ġcompensation": 4587,
      "ĠSelect": 4588,
      "ĠSelling": 4589,
      "Ġselecting": 4590,
      "ĠPrice": 4591,
      "Ġmanufacturer": 4592,
      "Ġdepreciate": 4593,
      "Ġrespective": 4594,
      "Ġtelecommunications": 4595,
      "Ġobjectives": 4596,
      "Ġcontinues": 4597,
      "Ġinfluence": 4598,
      "Ġinfluenced": 4599,
      "Ġpublicly": 4600,
      "Assets": 4601,
      "Sharpe": 4602,
      "Shareholders": 4603,
      "price": 4604,
      "shot": 4605,
      "share": 4606,
      "Ġessence": 4607,
      "Ġessentially": 4608,
      "Ġoccas": 4609,
      "Ġpasses": 4610,
      "Ġpassive": 4611,
      "Ġeventual": 4612,
      "Ġeventually": 4613,
      "ĠTechn": 4614,
      "ĠTechCo": 4615,
      "Ġluck": 4616,
      "Ġstrain": 4617,
      "Ġdeemed": 4618,
      "ĠEconomist": 4619,
      "ĠCapital": 4620,
      "Ġsupply": 4621,
      "Ġreliability": 4622,
      "ĠWeighted": 4623,
      "Ġpoorly": 4624,
      "Ġenhance": 4625,
      "Ġenhances": 4626,
      "Ġeliminate": 4627,
      "Ġdrawback": 4628,
      "Ġdrawbacks": 4629,
      "Ġguarantee": 4630,
      "Ġtargeted": 4631,
      "Ġconducting": 4632,
      "Ġattempts": 4633,
      "248": 4634,
      "ETFs": 4635,
      "Standard": 4636,
      "Strike": 4637,
      "Taxes": 4638,
      "looking": 4639,
      "Ġautore": 4640,
      "Ġcentral": 4641,
      "Ġclear": 4642,
      "Ġcategory": 4643,
      "Ġcategories": 4644,
      "Ġcycles": 4645,
      "Ġcyclical": 4646,
      "Ġbring": 4647,
      "Ġprivately": 4648,
      "ĠApple": 4649,
      "Ġassigns": 4650,
      "ĠCorporation": 4651,
      "ĠCorporate": 4652,
      "Ġunfortunate": 4653,
      "Ġunpredict": 4654,
      "Ġincurs": 4655,
      "ĠProject": 4656,
      "Ġsuccessful": 4657,
      "ĠHistory": 4658,
      "ĠHistorical": 4659,
      "ĠForwards": 4660,
      "Ġwebsite": 4661,
      "Ġintegr": 4662,
      "Ġintegral": 4663,
      "Ġestablishes": 4664,
      "ĠOften": 4665,
      "Ġdecides": 4666,
      "ĠLiu": 4667,
      "ĠLiabilities": 4668,
      "Ġpurpose": 4669,
      "Ġpurposes": 4670,
      "ĠCommission": 4671,
      "Ġregularly": 4672,
      "Ġcommission": 4673,
      "Ġcommissions": 4674,
      "Ġ1973": 4675,
      "Ġspreadsheet": 4676,
      "Ġsummary": 4677,
      "Ġcollective": 4678,
      "Ġtransaction": 4679,
      "Ġtransactions": 4680,
      "Ġfavorable": 4681,
      ")âĪĴâĪĳ(": 4682,
      "Interest": 4683,
      "diversified": 4684,
      "neutral": 4685,
      "Ġeroded": 4686,
      "regate": 4687,
      "Ġchem": 4688,
      "Ġcapture": 4689,
      "Ġsavings": 4690,
      "Ġslightly": 4691,
      "Ġsatisfact": 4692,
      "Ġbreak": 4693,
      "Ġanticipate": 4694,
      "Ġdiminished": 4695,
      "Ġeuro": 4696,
      "Ġraising": 4697,
      "Ġrule": 4698,
      "Ġreversion": 4699,
      "Ġrepeated": 4700,
      "Ġreplace": 4701,
      "Ġvulnerable": 4702,
      "ĠTypes": 4703,
      "Ġsteamroll": 4704,
      "Ġbearish": 4705,
      "Ġexclusively": 4706,
      "Ġgames": 4707,
      "Ġconsumer": 4708,
      "ĠSpreads": 4709,
      "Ġperspective": 4710,
      "ĠCoca": 4711,
      "Ġunderperformed": 4712,
      "Ġaccompan": 4713,
      "Ġprecisely": 4714,
      "ĠWhether": 4715,
      "Ġmanipulated": 4716,
      "Ġdepicts": 4717,
      "Ġdivergence": 4718,
      "Ġdisrupted": 4719,
      "Ġdisadvantage": 4720,
      "Ġsampling": 4721,
      "Ġdifferentials": 4722,
      "Ġdistinguish": 4723,
      "Ġsubstantial": 4724,
      "Ġsettlement": 4725,
      "Ġdiversifying": 4726,
      "ĠContracts": 4727,
      "Ġintroduced": 4728,
      "Ġmisleadingly": 4729,
      "Ġinterpreted": 4730,
      "ĠMeanwhile": 4731,
      "ĠQuality": 4732,
      "Ġartificially": 4733,
      "Ġcharacteristics": 4734,
      "Ġstraightforward": 4735,
      "Ġvisualize": 4736,
      "Ġcorrespondingly": 4737,
      "Ġerrors": 4738,
      "Ġresources": 4739,
      "Ġaccelerates": 4740,
      "COGS": 4741,
      "Correlation": 4742,
      "Cola": 4743,
      "CapEx": 4744,
      "Corporate": 4745,
      "Depreciation": 4746,
      "IPO": 4747,
      "Jenkins": 4748,
      "Merton": 4749,
      "Unexplained": 4750,
      "nowled": 4751,
      "specific": 4752,
      "Ġacknowled": 4753,
      "annualized": 4754,
      "Ġpione": 4755,
      "Ġpresence": 4756,
      "Ġplugin": 4757,
      "Ġfederal": 4758,
      "Ġflexibility": 4759,
      "Ġblue": 4760,
      "Ġanswer": 4761,
      "Ġdilut": 4762,
      "Ġdimensions": 4763,
      "Ġroughly": 4764,
      "Ġreconc": 4765,
      "Ġreached": 4766,
      "Ġvanilla": 4767,
      "Ġstretch": 4768,
      "Ġstudies": 4769,
      "Ġexactly": 4770,
      "Ġexternal": 4771,
      "Ġnatural": 4772,
      "Ġongoing": 4773,
      "ĠAmazon": 4774,
      "Ġprogram": 4775,
      "Ġretirement": 4776,
      "Ġconclusion": 4777,
      "ĠSector": 4778,
      "ĠSprint": 4779,
      "ĠSpecifically": 4780,
      "ĠSpeculators": 4781,
      "Ġalloc": 4782,
      "ĠFurthermore": 4783,
      "ĠEssentially": 4784,
      "ĠRegardless": 4785,
      "ĠRobert": 4786,
      "Ġuncommon": 4787,
      "Ġuniverse": 4788,
      "ĠInterpret": 4789,
      "Ġtrajectory": 4790,
      "Ġsuppliers": 4791,
      "ĠDownside": 4792,
      "ĠDetermining": 4793,
      "ĠDoesn": 4794,
      "Ġadapted": 4795,
      "ĠWisdomTree": 4796,
      "Ġstruggling": 4797,
      "Ġimperfect": 4798,
      "Ġabnormally": 4799,
      "ĠHansen": 4800,
      "Ġweakness": 4801,
      "advisors": 4802,
      "Ġrescaled": 4803,
      "Ġoutlined": 4804,
      "Ġoutliers": 4805,
      "ĠShareowners": 4806,
      "ĠNextel": 4807,
      "Ġupfront": 4808,
      "ĠManhattan": 4809,
      "Ġknowledge": 4810,
      "Ġoccasions": 4811,
      "Ġsteamroller": 4812,
      "\")": 4813,
      "%+": 4814,
      "%:": 4815,
      "%=": 4816,
      "%)âĢĭ": 4817,
      "'ve": 4818,
      "(âĪĳ(": 4819,
      ")}": 4820,
      ")}{\\": 4821,
      ")ÃĹ(": 4822,
      ")+(": 4823,
      ")ÃĹâĪĳ(": 4824,
      "-$": 4825,
      "14": 4826,
      "26": 4827,
      "27": 4828,
      "28": 4829,
      "220": 4830,
      "272": 4831,
      "31": 4832,
      "32": 4833,
      "36": 4834,
      "41": 4835,
      "42": 4836,
      "46": 4837,
      "47": 4838,
      "49": 4839,
      "58": 4840,
      "500": 4841,
      "63": 4842,
      "64": 4843,
      "65": 4844,
      "69": 4845,
      "70": 4846,
      "74": 4847,
      "81": 4848,
      "86": 4849,
      "87": 4850,
      "91": 4851,
      "92": 4852,
      "94": 4853,
      "98": 4854,
      "915": 4855,
      ":}\\\\&": 4856,
      ":}\\\\&\\": 4857,
      "?\"": 4858,
      "AG": 4859,
      "AI": 4860,
      "AM": 4861,
      "AR": 4862,
      "AS": 4863,
      "Al": 4864,
      "Aor": 4865,
      "APT": 4866,
      "Awhere": 4867,
      "Aug": 4868,
      "AME": 4869,
      "April": 4870,
      "BR": 4871,
      "BOE": 4872,
      "Black": 4873,
      "BVPS": 4874,
      "CE": 4875,
      "CML": 4876,
      "DR": 4877,
      "DRe": 4878,
      "Does": 4879,
      "DGRW": 4880,
      "EA": 4881,
      "EO": 4882,
      "Each": 4883,
      "EUR": 4884,
      "EMH": 4885,
      "FS": 4886,
      "FDX": 4887,
      "French": 4888,
      "GG": 4889,
      "GL": 4890,
      "Gree": 4891,
      "Gordon": 4892,
      "HESM": 4893,
      "ICAPM": 4894,
      "ICVT": 4895,
      "KO": 4896,
      "KS": 4897,
      "Ke": 4898,
      "LC": 4899,
      "Le": 4900,
      "LBO": 4901,
      "MPC": 4902,
      "MFS": 4903,
      "NY": 4904,
      "PP": 4905,
      "PDR": 4906,
      "Ro": 4907,
      "Ref": 4908,
      "ROIC": 4909,
      "SN": 4910,
      "Sten": 4911,
      "Squared": 4912,
      "SML": 4913,
      "SGR": 4914,
      "SEBT": 4915,
      "TI": 4916,
      "Tu": 4917,
      "USD": 4918,
      "VER": 4919,
      "Whe": 4920,
      "Work": 4921,
      "WTI": 4922,
      "ZN": 4923,
      "aw": 4924,
      "aut": 4925,
      "aun": 4926,
      "aure": 4927,
      "acul": 4928,
      "aple": 4929,
      "aders": 4930,
      "after": 4931,
      "axim": 4932,
      "away": 4933,
      "aced": 4934,
      "aker": 4935,
      "aken": 4936,
      "available": 4937,
      "bu": 4938,
      "bon": 4939,
      "bing": 4940,
      "bial": 4941,
      "bility": 4942,
      "bust": 4943,
      "bod": 4944,
      "bac": 4945,
      "based": 4946,
      "bserv": 4947,
      "burse": 4948,
      "co": 4949,
      "cr": 4950,
      "cil": 4951,
      "cher": 4952,
      "cers": 4953,
      "creas": 4954,
      "call": 4955,
      "cret": 4956,
      "check": 4957,
      "cute": 4958,
      "ches": 4959,
      "citing": 4960,
      "dn": 4961,
      "dent": 4962,
      "dly": 4963,
      "dors": 4964,
      "dds": 4965,
      "dual": 4966,
      "down": 4967,
      "dict": 4968,
      "dustr": 4969,
      "dence": 4970,
      "dified": 4971,
      "dividend": 4972,
      "dden": 4973,
      "eh": 4974,
      "ek": 4975,
      "el": 4976,
      "ev": 4977,
      "eor": 4978,
      "equ": 4979,
      "evalu": 4980,
      "even": 4981,
      "econom": 4982,
      "eak": 4983,
      "els": 4984,
      "eath": 4985,
      "eously": 4986,
      "fy": 4987,
      "file": 4988,
      "fall": 4989,
      "fty": 4990,
      "fitable": 4991,
      "feren": 4992,
      "fined": 4993,
      "fusion": 4994,
      "gn": 4995,
      "gal": 4996,
      "gor": 4997,
      "gan": 4998,
      "gas": 4999
    },
    "merges": [
      [
        "Ġ",
        "t"
      ],
      [
        "Ġ",
        "a"
      ],
      [
        "h",
        "e"
      ],
      [
        "i",
        "n"
      ],
      [
        "r",
        "e"
      ],
      [
        "Ġ",
        "o"
      ],
      [
        "Ġt",
        "he"
      ],
      [
        "a",
        "t"
      ],
      [
        "Ġ",
        "c"
      ],
      [
        "e",
        "r"
      ],
      [
        "o",
        "n"
      ],
      [
        "e",
        "s"
      ],
      [
        "i",
        "s"
      ],
      [
        "Ġ",
        "s"
      ],
      [
        "a",
        "l"
      ],
      [
        "o",
        "r"
      ],
      [
        "a",
        "n"
      ],
      [
        "Ġ",
        "p"
      ],
      [
        "i",
        "t"
      ],
      [
        "Ġ",
        "in"
      ],
      [
        "Ġ",
        "f"
      ],
      [
        "Ġ",
        "b"
      ],
      [
        "e",
        "n"
      ],
      [
        "Ġ",
        "m"
      ],
      [
        "a",
        "r"
      ],
      [
        "i",
        "on"
      ],
      [
        "in",
        "g"
      ],
      [
        "Ġo",
        "f"
      ],
      [
        "Ġa",
        "n"
      ],
      [
        "Ġ",
        "d"
      ],
      [
        "e",
        "d"
      ],
      [
        "Ġ",
        "w"
      ],
      [
        "i",
        "c"
      ],
      [
        "Ġt",
        "o"
      ],
      [
        "Ġ",
        "e"
      ],
      [
        "o",
        "m"
      ],
      [
        "e",
        "t"
      ],
      [
        "Ġ",
        "r"
      ],
      [
        "Ġ",
        "re"
      ],
      [
        "Ġ",
        "is"
      ],
      [
        "u",
        "s"
      ],
      [
        "Ġan",
        "d"
      ],
      [
        "Ġt",
        "h"
      ],
      [
        "a",
        "s"
      ],
      [
        "en",
        "t"
      ],
      [
        "u",
        "l"
      ],
      [
        "Ġ",
        "v"
      ],
      [
        "c",
        "t"
      ],
      [
        "Ġ",
        "T"
      ],
      [
        "Ġp",
        "r"
      ],
      [
        "i",
        "l"
      ],
      [
        "i",
        "v"
      ],
      [
        "u",
        "r"
      ],
      [
        "Ġ",
        "l"
      ],
      [
        "es",
        "t"
      ],
      [
        "at",
        "ion"
      ],
      [
        "o",
        "w"
      ],
      [
        "Ġa",
        "s"
      ],
      [
        "l",
        "y"
      ],
      [
        "Ġs",
        "t"
      ],
      [
        "o",
        "l"
      ],
      [
        "Ġ",
        "h"
      ],
      [
        "Ġb",
        "e"
      ],
      [
        "Ġc",
        "om"
      ],
      [
        "u",
        "t"
      ],
      [
        "v",
        "est"
      ],
      [
        "u",
        "n"
      ],
      [
        "Ġe",
        "x"
      ],
      [
        "o",
        "s"
      ],
      [
        "i",
        "m"
      ],
      [
        "Ġ",
        "n"
      ],
      [
        "Ġo",
        "n"
      ],
      [
        "Ġth",
        "at"
      ],
      [
        "at",
        "e"
      ],
      [
        "Ġf",
        "or"
      ],
      [
        "Ġcom",
        "p"
      ],
      [
        "ĠT",
        "he"
      ],
      [
        "Ġd",
        "e"
      ],
      [
        "i",
        "o"
      ],
      [
        "p",
        "t"
      ],
      [
        "re",
        "s"
      ],
      [
        "Ġin",
        "vest"
      ],
      [
        "Ġ",
        "I"
      ],
      [
        "l",
        "e"
      ],
      [
        "al",
        "u"
      ],
      [
        "i",
        "g"
      ],
      [
        "Ġo",
        "r"
      ],
      [
        "r",
        "a"
      ],
      [
        "Ġ",
        "it"
      ],
      [
        "c",
        "e"
      ],
      [
        "it",
        "y"
      ],
      [
        "or",
        "t"
      ],
      [
        "Ġr",
        "is"
      ],
      [
        "Ġ",
        "us"
      ],
      [
        "d",
        "e"
      ],
      [
        "Ġ",
        "g"
      ],
      [
        "â",
        "Ģ"
      ],
      [
        "c",
        "k"
      ],
      [
        "c",
        "h"
      ],
      [
        "Ġpr",
        "ic"
      ],
      [
        "Ġv",
        "alu"
      ],
      [
        "Ġris",
        "k"
      ],
      [
        "d",
        "er"
      ],
      [
        "pt",
        "ion"
      ],
      [
        "q",
        "u"
      ],
      [
        "Ġ",
        "A"
      ],
      [
        "'",
        "s"
      ],
      [
        "m",
        "ent"
      ],
      [
        "t",
        "e"
      ],
      [
        "v",
        "er"
      ],
      [
        "Ġas",
        "s"
      ],
      [
        "Ġcomp",
        "an"
      ],
      [
        "ur",
        "n"
      ],
      [
        "Ġ",
        "("
      ],
      [
        "g",
        "e"
      ],
      [
        "he",
        "r"
      ],
      [
        "Ġpr",
        "o"
      ],
      [
        "iv",
        "e"
      ],
      [
        "Ġc",
        "an"
      ],
      [
        "i",
        "f"
      ],
      [
        "Ġre",
        "t"
      ],
      [
        "Ġc",
        "on"
      ],
      [
        "p",
        "e"
      ],
      [
        "Ġo",
        "ption"
      ],
      [
        "Ġpric",
        "e"
      ],
      [
        "o",
        "t"
      ],
      [
        "o",
        "ck"
      ],
      [
        "Ġa",
        "re"
      ],
      [
        "Ġret",
        "urn"
      ],
      [
        "v",
        "e"
      ],
      [
        "a",
        "b"
      ],
      [
        "a",
        "y"
      ],
      [
        "Ġvalu",
        "e"
      ],
      [
        "Ġst",
        "ock"
      ],
      [
        "Ġcompan",
        "y"
      ],
      [
        "Ġm",
        "o"
      ],
      [
        "Ġs",
        "h"
      ],
      [
        "Ġ",
        "S"
      ],
      [
        "Ġs",
        "e"
      ],
      [
        "ar",
        "k"
      ],
      [
        "or",
        "s"
      ],
      [
        "it",
        "h"
      ],
      [
        "i",
        "es"
      ],
      [
        "es",
        "s"
      ],
      [
        "a",
        "re"
      ],
      [
        "Ġw",
        "ith"
      ],
      [
        "Ġa",
        "l"
      ],
      [
        "o",
        "ul"
      ],
      [
        "Ġb",
        "y"
      ],
      [
        "Ġr",
        "at"
      ],
      [
        "oul",
        "d"
      ],
      [
        "i",
        "r"
      ],
      [
        "u",
        "m"
      ],
      [
        "k",
        "e"
      ],
      [
        "Ġ",
        "F"
      ],
      [
        "Ġ",
        "y"
      ],
      [
        "Ġ",
        "E"
      ],
      [
        "an",
        "d"
      ],
      [
        "Ġp",
        "er"
      ],
      [
        "il",
        "l"
      ],
      [
        "a",
        "m"
      ],
      [
        "Ġ",
        "R"
      ],
      [
        "Ġ",
        "\\"
      ],
      [
        "Ġw",
        "h"
      ],
      [
        "Ġ",
        "C"
      ],
      [
        "u",
        "re"
      ],
      [
        "Ġc",
        "al"
      ],
      [
        "f",
        "ol"
      ],
      [
        "Ġ",
        "1"
      ],
      [
        "ort",
        "fol"
      ],
      [
        "Ġ",
        "un"
      ],
      [
        "ĠI",
        "n"
      ],
      [
        "Ġass",
        "et"
      ],
      [
        "an",
        "ce"
      ],
      [
        "ar",
        "i"
      ],
      [
        "ark",
        "et"
      ],
      [
        "s",
        "t"
      ],
      [
        "ar",
        "d"
      ],
      [
        "Ġp",
        "ortfol"
      ],
      [
        "âĢ",
        "Ļ"
      ],
      [
        "re",
        "n"
      ],
      [
        "o",
        "un"
      ],
      [
        "Ġin",
        "c"
      ],
      [
        "en",
        "d"
      ],
      [
        "i",
        "al"
      ],
      [
        "Ġ",
        "P"
      ],
      [
        "Ġm",
        "arket"
      ],
      [
        "l",
        "ow"
      ],
      [
        "Ġa",
        "t"
      ],
      [
        "ig",
        "h"
      ],
      [
        "Ġm",
        "e"
      ],
      [
        "t",
        "er"
      ],
      [
        "v",
        "i"
      ],
      [
        "t",
        "ra"
      ],
      [
        "at",
        "ive"
      ],
      [
        "Ġit",
        "s"
      ],
      [
        "Ġrat",
        "io"
      ],
      [
        "c",
        "ul"
      ],
      [
        "t",
        "her"
      ],
      [
        "Ġportfol",
        "io"
      ],
      [
        "x",
        "t"
      ],
      [
        "il",
        "ity"
      ],
      [
        "Ġex",
        "p"
      ],
      [
        "o",
        "u"
      ],
      [
        "Ġf",
        "r"
      ],
      [
        "0",
        "0"
      ],
      [
        "er",
        "s"
      ],
      [
        "Ġ",
        "M"
      ],
      [
        "us",
        "t"
      ],
      [
        "Ġe",
        "qu"
      ],
      [
        "Ġv",
        "ari"
      ],
      [
        "Ġt",
        "ra"
      ],
      [
        "s",
        "e"
      ],
      [
        "Ġ",
        "$"
      ],
      [
        "Ġb",
        "et"
      ],
      [
        "Ġw",
        "ill"
      ],
      [
        "Ġinvest",
        "ment"
      ],
      [
        "tra",
        "ct"
      ],
      [
        "a",
        "in"
      ],
      [
        "i",
        "ke"
      ],
      [
        "Ġw",
        "he"
      ],
      [
        "os",
        "t"
      ],
      [
        "f",
        "f"
      ],
      [
        "re",
        "e"
      ],
      [
        "Ġf",
        "ut"
      ],
      [
        "l",
        "l"
      ],
      [
        "Ġ",
        "B"
      ],
      [
        "is",
        "t"
      ],
      [
        "om",
        "e"
      ],
      [
        "te",
        "xt"
      ],
      [
        "Ġus",
        "ed"
      ],
      [
        "Ġs",
        "u"
      ],
      [
        "Ġr",
        "ate"
      ],
      [
        "Ġf",
        "in"
      ],
      [
        "Ġc",
        "as"
      ],
      [
        "or",
        "m"
      ],
      [
        "ar",
        "n"
      ],
      [
        "Ġun",
        "der"
      ],
      [
        "oun",
        "t"
      ],
      [
        "ic",
        "al"
      ],
      [
        "Ġinvest",
        "ors"
      ],
      [
        "at",
        "ed"
      ],
      [
        "Ġ",
        "he"
      ],
      [
        "ing",
        "s"
      ],
      [
        "ation",
        "s"
      ],
      [
        "u",
        "res"
      ],
      [
        "Ġh",
        "a"
      ],
      [
        "a",
        "ge"
      ],
      [
        "t",
        "h"
      ],
      [
        "Ġ",
        "="
      ],
      [
        "Ġc",
        "h"
      ],
      [
        "Ġcal",
        "cul"
      ],
      [
        "s",
        "i"
      ],
      [
        "ĠT",
        "h"
      ],
      [
        "Ġn",
        "ot"
      ],
      [
        "Ġus",
        "e"
      ],
      [
        "pe",
        "ct"
      ],
      [
        "p",
        "le"
      ],
      [
        "Ġin",
        "d"
      ],
      [
        "o",
        "o"
      ],
      [
        "o",
        "re"
      ],
      [
        "Ġb",
        "u"
      ],
      [
        "ul",
        "t"
      ],
      [
        "Ġfr",
        "om"
      ],
      [
        "Ġn",
        "e"
      ],
      [
        "an",
        "t"
      ],
      [
        "er",
        "m"
      ],
      [
        "an",
        "c"
      ],
      [
        "Ġcon",
        "tract"
      ],
      [
        "ab",
        "le"
      ],
      [
        "and",
        "ard"
      ],
      [
        "al",
        "y"
      ],
      [
        "i",
        "d"
      ],
      [
        "a",
        "p"
      ],
      [
        "e",
        "ct"
      ],
      [
        "Ġe",
        "arn"
      ],
      [
        "d",
        "s"
      ],
      [
        "Ġde",
        "vi"
      ],
      [
        "Ġcas",
        "h"
      ],
      [
        "Ġre",
        "l"
      ],
      [
        "u",
        "al"
      ],
      [
        "Ġ",
        "D"
      ],
      [
        "Ġt",
        "im"
      ],
      [
        "Ġa",
        "c"
      ],
      [
        "e",
        "ar"
      ],
      [
        "Ġh",
        "as"
      ],
      [
        "ĠI",
        "t"
      ],
      [
        "Ġo",
        "ver"
      ],
      [
        "Ġp",
        "re"
      ],
      [
        "Ġan",
        "aly"
      ],
      [
        "Ġw",
        "ould"
      ],
      [
        "Ġoption",
        "s"
      ],
      [
        "c",
        "ount"
      ],
      [
        "âĢ",
        "ĭ"
      ],
      [
        "it",
        "ion"
      ],
      [
        "ic",
        "i"
      ],
      [
        "ol",
        "at"
      ],
      [
        "Ġbu",
        "y"
      ],
      [
        "d",
        "ing"
      ],
      [
        "igh",
        "t"
      ],
      [
        "Ġt",
        "a"
      ],
      [
        "Ġreturn",
        "s"
      ],
      [
        "Ġha",
        "ve"
      ],
      [
        "Ġdevi",
        "ation"
      ],
      [
        "Ġex",
        "pect"
      ],
      [
        "ĠTh",
        "is"
      ],
      [
        "a",
        "us"
      ],
      [
        "p",
        "l"
      ],
      [
        "Ġv",
        "olat"
      ],
      [
        "Ġon",
        "e"
      ],
      [
        "Ġfin",
        "anc"
      ],
      [
        "Ġo",
        "ther"
      ],
      [
        "de",
        "l"
      ],
      [
        "s",
        "o"
      ],
      [
        "Ġa",
        "d"
      ],
      [
        "ic",
        "h"
      ],
      [
        "Ġth",
        "is"
      ],
      [
        "Ġf",
        "low"
      ],
      [
        "Ġwh",
        "ich"
      ],
      [
        "Ġd",
        "at"
      ],
      [
        "ff",
        "ici"
      ],
      [
        "Ġtim",
        "e"
      ],
      [
        "Ġ",
        "W"
      ],
      [
        "ly",
        "ing"
      ],
      [
        "ren",
        "t"
      ],
      [
        "Ġearn",
        "ings"
      ],
      [
        "aus",
        "e"
      ],
      [
        "Ġth",
        "an"
      ],
      [
        "Ġst",
        "r"
      ],
      [
        "Ġsh",
        "are"
      ],
      [
        "i",
        "z"
      ],
      [
        "Ġst",
        "andard"
      ],
      [
        "Ġpro",
        "f"
      ],
      [
        "Ġmo",
        "del"
      ],
      [
        "Ġal",
        "so"
      ],
      [
        "Ġthe",
        "y"
      ],
      [
        "erm",
        "in"
      ],
      [
        "r",
        "ow"
      ],
      [
        "re",
        "as"
      ],
      [
        "Ġm",
        "ay"
      ],
      [
        "Ġex",
        "am"
      ],
      [
        "Ġunder",
        "lying"
      ],
      [
        "Ġdat",
        "a"
      ],
      [
        "a",
        "ct"
      ],
      [
        "c",
        "ause"
      ],
      [
        "il",
        "e"
      ],
      [
        "der",
        "s"
      ],
      [
        "f",
        "orm"
      ],
      [
        "Ġequ",
        "ity"
      ],
      [
        "Ġ",
        "if"
      ],
      [
        "re",
        "l"
      ],
      [
        "Ġthe",
        "ir"
      ],
      [
        "at",
        "es"
      ],
      [
        "Ġl",
        "ow"
      ],
      [
        "ffici",
        "ent"
      ],
      [
        "C",
        "F"
      ],
      [
        "Ġme",
        "as"
      ],
      [
        "Ġinvest",
        "or"
      ],
      [
        "Ġch",
        "an"
      ],
      [
        "at",
        "ing"
      ],
      [
        "Ġm",
        "an"
      ],
      [
        "Ġvolat",
        "ility"
      ],
      [
        "res",
        "ent"
      ],
      [
        "if",
        "f"
      ],
      [
        "c",
        "ur"
      ],
      [
        "Ġ",
        "im"
      ],
      [
        "Ġc",
        "or"
      ],
      [
        "Ġm",
        "a"
      ],
      [
        "Ġa",
        "b"
      ],
      [
        "Ġd",
        "iff"
      ],
      [
        "Ġh",
        "ow"
      ],
      [
        "Ġfinanc",
        "ial"
      ],
      [
        "Ġmo",
        "re"
      ],
      [
        "Ġ",
        "H"
      ],
      [
        "Ġp",
        "os"
      ],
      [
        "it",
        "al"
      ],
      [
        "Ġexam",
        "ple"
      ],
      [
        "B",
        "I"
      ],
      [
        "l",
        "u"
      ],
      [
        "Ġc",
        "ap"
      ],
      [
        "Ġre",
        "p"
      ],
      [
        "ĠF",
        "or"
      ],
      [
        "BI",
        "T"
      ],
      [
        "r",
        "o"
      ],
      [
        "as",
        "t"
      ],
      [
        "Ġl",
        "ike"
      ],
      [
        "Ġy",
        "ear"
      ],
      [
        "Ġfut",
        "ure"
      ],
      [
        "er",
        "iv"
      ],
      [
        "Ġw",
        "e"
      ],
      [
        "ig",
        "n"
      ],
      [
        "Ġse",
        "ll"
      ],
      [
        "are",
        "d"
      ],
      [
        "Ġexpect",
        "ed"
      ],
      [
        "Ġprof",
        "it"
      ],
      [
        "ĠI",
        "f"
      ],
      [
        "Ġy",
        "ou"
      ],
      [
        "Ġme",
        "an"
      ],
      [
        "oo",
        "k"
      ],
      [
        "al",
        "l"
      ],
      [
        "ar",
        "t"
      ],
      [
        "os",
        "e"
      ],
      [
        "Ġde",
        "p"
      ],
      [
        "Ġcap",
        "ital"
      ],
      [
        "p",
        "p"
      ],
      [
        "t",
        "a"
      ],
      [
        "Ġc",
        "ost"
      ],
      [
        "Ġin",
        "te"
      ],
      [
        "Ġd",
        "iv"
      ],
      [
        "a",
        "res"
      ],
      [
        "Ġbe",
        "cause"
      ],
      [
        "res",
        "t"
      ],
      [
        "Ġass",
        "um"
      ],
      [
        "b",
        "t"
      ],
      [
        "Ġf",
        "un"
      ],
      [
        "Ġg",
        "row"
      ],
      [
        "ĠIn",
        "vest"
      ],
      [
        "Ġsu",
        "ch"
      ],
      [
        "Ġl",
        "e"
      ],
      [
        "a",
        "d"
      ],
      [
        "g",
        "es"
      ],
      [
        "ver",
        "age"
      ],
      [
        "Ġcal",
        "l"
      ],
      [
        "Ġ",
        "est"
      ],
      [
        "D",
        "A"
      ],
      [
        "m",
        "on"
      ],
      [
        "p",
        "er"
      ],
      [
        "Ġasset",
        "s"
      ],
      [
        "BIT",
        "DA"
      ],
      [
        "s",
        "is"
      ],
      [
        "Ġ",
        "2"
      ],
      [
        "Ġd",
        "is"
      ],
      [
        "Ġh",
        "ig"
      ],
      [
        "os",
        "s"
      ],
      [
        "Ġind",
        "ic"
      ],
      [
        "d",
        "u"
      ],
      [
        "Ġinc",
        "ome"
      ],
      [
        "O",
        "E"
      ],
      [
        "i",
        "b"
      ],
      [
        "en",
        "er"
      ],
      [
        "Ġm",
        "et"
      ],
      [
        "Ġre",
        "s"
      ],
      [
        "Ġde",
        "l"
      ],
      [
        "Ġfut",
        "ures"
      ],
      [
        "Ġinte",
        "rest"
      ],
      [
        "e",
        "en"
      ],
      [
        "w",
        "o"
      ],
      [
        "Ġo",
        "ut"
      ],
      [
        "Ġs",
        "im"
      ],
      [
        "ow",
        "n"
      ],
      [
        "Ġdiff",
        "e"
      ],
      [
        "Ġest",
        "im"
      ],
      [
        "Ġhig",
        "her"
      ],
      [
        "i",
        "re"
      ],
      [
        "j",
        "ect"
      ],
      [
        "p",
        "h"
      ],
      [
        "t",
        "en"
      ],
      [
        "Ġ",
        "O"
      ],
      [
        "Ġp",
        "o"
      ],
      [
        "iv",
        "es"
      ],
      [
        "Ġse",
        "cur"
      ],
      [
        "Ġhe",
        "d"
      ],
      [
        "Ġanaly",
        "sis"
      ],
      [
        "w",
        "een"
      ],
      [
        "ĠS",
        "h"
      ],
      [
        "Ġbet",
        "ween"
      ],
      [
        "Ġwhe",
        "n"
      ],
      [
        "j",
        "ust"
      ],
      [
        "Ġt",
        "wo"
      ],
      [
        "Ġc",
        "ould"
      ],
      [
        "Ġh",
        "igh"
      ],
      [
        "ment",
        "s"
      ],
      [
        "ab",
        "l"
      ],
      [
        "'",
        "t"
      ],
      [
        "Ġc",
        "ur"
      ],
      [
        "it",
        "ies"
      ],
      [
        "Ġn",
        "et"
      ],
      [
        "Ġper",
        "form"
      ],
      [
        "Ġcor",
        "rel"
      ],
      [
        "Ġrep",
        "resent"
      ],
      [
        "c",
        "i"
      ],
      [
        "f",
        "ore"
      ],
      [
        "Ġ",
        "G"
      ],
      [
        "Ġc",
        "o"
      ],
      [
        "Ġin",
        "de"
      ],
      [
        "Ġd",
        "eriv"
      ],
      [
        "if",
        "ic"
      ],
      [
        "Ġ\\",
        "\\"
      ],
      [
        "t",
        "o"
      ],
      [
        "v",
        "alu"
      ],
      [
        "on",
        "g"
      ],
      [
        "Ġb",
        "ut"
      ],
      [
        "Ġg",
        "ener"
      ],
      [
        "Ġexp",
        "ir"
      ],
      [
        "Ġb",
        "as"
      ],
      [
        "et",
        "ermin"
      ],
      [
        "Ġac",
        "count"
      ],
      [
        "Ġmeas",
        "ure"
      ],
      [
        "Ġab",
        "o"
      ],
      [
        ")",
        "."
      ],
      [
        "a",
        "ch"
      ],
      [
        "c",
        "ess"
      ],
      [
        "k",
        "ing"
      ],
      [
        "Ġfor",
        "m"
      ],
      [
        "Ġde",
        "bt"
      ],
      [
        "Ġcompan",
        "ies"
      ],
      [
        "ĠE",
        "BITDA"
      ],
      [
        "ĠR",
        "OE"
      ],
      [
        "Ġbet",
        "a"
      ],
      [
        "P",
        "M"
      ],
      [
        "i",
        "e"
      ],
      [
        "ab",
        "ility"
      ],
      [
        "Ġim",
        "p"
      ],
      [
        "Ġgrow",
        "th"
      ],
      [
        "l",
        "o"
      ],
      [
        "Ġ",
        "&"
      ],
      [
        "Ġb",
        "en"
      ],
      [
        "en",
        "s"
      ],
      [
        "Ġcon",
        "si"
      ],
      [
        "Ġrel",
        "ative"
      ],
      [
        "abl",
        "es"
      ],
      [
        "Ġperform",
        "ance"
      ],
      [
        "i",
        "er"
      ],
      [
        "Ġ",
        "U"
      ],
      [
        "Ġthe",
        "n"
      ],
      [
        "Ġp",
        "ay"
      ],
      [
        "Ġof",
        "ten"
      ],
      [
        "Ġd",
        "o"
      ],
      [
        "qu",
        "ared"
      ],
      [
        "Ġsh",
        "ares"
      ],
      [
        "h",
        "ol"
      ],
      [
        "i",
        "ed"
      ],
      [
        "in",
        "t"
      ],
      [
        "Ġm",
        "on"
      ],
      [
        "Ġinc",
        "reas"
      ],
      [
        "w",
        "ard"
      ],
      [
        "Ġ",
        "N"
      ],
      [
        "Ġa",
        "verage"
      ],
      [
        "Ġs",
        "am"
      ],
      [
        "Ġd",
        "etermin"
      ],
      [
        "Ġres",
        "ult"
      ],
      [
        "ar",
        "pe"
      ],
      [
        "Ġde",
        "c"
      ],
      [
        "Ġus",
        "ing"
      ],
      [
        "Ġvari",
        "ables"
      ],
      [
        "A",
        "PM"
      ],
      [
        "a",
        "ck"
      ],
      [
        "e",
        "ver"
      ],
      [
        "m",
        "a"
      ],
      [
        "Ġs",
        "pe"
      ],
      [
        "ul",
        "a"
      ],
      [
        "f",
        "ul"
      ],
      [
        "i",
        "p"
      ],
      [
        "s",
        "quared"
      ],
      [
        "Ġa",
        "g"
      ],
      [
        "ic",
        "t"
      ],
      [
        "ct",
        "ion"
      ],
      [
        "ĠA",
        "s"
      ],
      [
        "Ġcontract",
        "s"
      ],
      [
        "Ġta",
        "x"
      ],
      [
        "ĠSh",
        "arpe"
      ],
      [
        "Ġexpir",
        "ation"
      ],
      [
        "Ġne",
        "g"
      ],
      [
        "e",
        "f"
      ],
      [
        "Ġ",
        ")"
      ],
      [
        "in",
        "ess"
      ],
      [
        "at",
        "ives"
      ],
      [
        "âĢ",
        "Ķ"
      ],
      [
        "Ġpro",
        "ject"
      ],
      [
        "Ġdiffe",
        "rent"
      ],
      [
        "h",
        "o"
      ],
      [
        "l",
        "p"
      ],
      [
        "u",
        "p"
      ],
      [
        "Ġc",
        "l"
      ],
      [
        "al",
        "ly"
      ],
      [
        "Ġf",
        "act"
      ],
      [
        "Ġcom",
        "mon"
      ],
      [
        "ĠA",
        "n"
      ],
      [
        "Ġper",
        "io"
      ],
      [
        "Ġhe",
        "lp"
      ],
      [
        "Ġstr",
        "ike"
      ],
      [
        "Ġrepresent",
        "s"
      ],
      [
        "hol",
        "ders"
      ],
      [
        "Ġneg",
        "ative"
      ],
      [
        "i",
        "os"
      ],
      [
        "â",
        "Ī"
      ],
      [
        "Ġ",
        "0"
      ],
      [
        "Ġa",
        "m"
      ],
      [
        "an",
        "ge"
      ],
      [
        "ce",
        "pt"
      ],
      [
        "Ġpo",
        "int"
      ],
      [
        "Ġcorrel",
        "ation"
      ],
      [
        "f",
        "ree"
      ],
      [
        "m",
        "ark"
      ],
      [
        "r",
        "ic"
      ],
      [
        "Ġm",
        "ight"
      ],
      [
        "Ġw",
        "as"
      ],
      [
        "Ġmo",
        "ve"
      ],
      [
        "Ġsh",
        "ould"
      ],
      [
        "ou",
        "g"
      ],
      [
        "ph",
        "a"
      ],
      [
        "Ġbas",
        "ed"
      ],
      [
        "Ġsam",
        "e"
      ],
      [
        "e",
        "fficient"
      ],
      [
        "Ġt",
        "e"
      ],
      [
        "in",
        "e"
      ],
      [
        "Ġo",
        "il"
      ],
      [
        "Ġs",
        "er"
      ],
      [
        "Ġm",
        "ost"
      ],
      [
        "Ġm",
        "ult"
      ],
      [
        "Ġal",
        "l"
      ],
      [
        "Ġfun",
        "d"
      ],
      [
        "Ġinde",
        "x"
      ],
      [
        "a",
        "g"
      ],
      [
        "b",
        "le"
      ],
      [
        "Ġp",
        "art"
      ],
      [
        "us",
        "iness"
      ],
      [
        "Ġl",
        "ess"
      ],
      [
        "ch",
        "mark"
      ],
      [
        "Ġvalu",
        "es"
      ],
      [
        "00",
        "0"
      ],
      [
        "Ġwhe",
        "ther"
      ],
      [
        "ĠH",
        "ow"
      ],
      [
        "Ġdep",
        "end"
      ],
      [
        "Ġben",
        "chmark"
      ],
      [
        "oug",
        "h"
      ],
      [
        "r",
        "u"
      ],
      [
        "Ġo",
        "b"
      ],
      [
        "Ġthe",
        "re"
      ],
      [
        "Ġl",
        "oss"
      ],
      [
        "ĠC",
        "APM"
      ],
      [
        "ust",
        "r"
      ],
      [
        "Ġlow",
        "er"
      ],
      [
        "Ġchan",
        "ges"
      ],
      [
        "Ġdis",
        "count"
      ],
      [
        "Ġdel",
        "ta"
      ],
      [
        "Ġco",
        "efficient"
      ],
      [
        "e",
        "y"
      ],
      [
        "r",
        "ib"
      ],
      [
        "Ġ",
        "5"
      ],
      [
        "Ġt",
        "y"
      ],
      [
        "re",
        "d"
      ],
      [
        "Ġthe",
        "se"
      ],
      [
        "Ġp",
        "ut"
      ],
      [
        "Ġpro",
        "vi"
      ],
      [
        "ĠF",
        "CF"
      ],
      [
        "Ġsecur",
        "ity"
      ],
      [
        "Ġhed",
        "ge"
      ],
      [
        "Ġperio",
        "d"
      ],
      [
        "b",
        "er"
      ],
      [
        "i",
        "de"
      ],
      [
        "o",
        "ur"
      ],
      [
        "Ġ",
        "up"
      ],
      [
        "Ġe",
        "fficient"
      ],
      [
        "Ġinc",
        "lu"
      ],
      [
        "Ġform",
        "ula"
      ],
      [
        "d",
        "ed"
      ],
      [
        "Ġ",
        "-"
      ],
      [
        "Ġs",
        "ome"
      ],
      [
        "or",
        "y"
      ],
      [
        "Ġf",
        "ir"
      ],
      [
        "Ġb",
        "usiness"
      ],
      [
        "Ġan",
        "y"
      ],
      [
        "Ġw",
        "ay"
      ],
      [
        "Ġbe",
        "fore"
      ],
      [
        "Ġn",
        "um"
      ],
      [
        "Ġwh",
        "ile"
      ],
      [
        "oo",
        "d"
      ],
      [
        "Ġpre",
        "d"
      ],
      [
        "Ġflow",
        "s"
      ],
      [
        "Ġchan",
        "ge"
      ],
      [
        "ign",
        "ed"
      ],
      [
        "Ġdiv",
        "id"
      ],
      [
        "a",
        "il"
      ],
      [
        "c",
        "on"
      ],
      [
        "t",
        "al"
      ],
      [
        "Ġw",
        "or"
      ],
      [
        "Ġto",
        "tal"
      ],
      [
        "ent",
        "ial"
      ],
      [
        "Ġpric",
        "es"
      ],
      [
        "ption",
        "s"
      ],
      [
        "ĠS",
        "t"
      ],
      [
        "ter",
        "n"
      ],
      [
        "ical",
        "ly"
      ],
      [
        "ĠHow",
        "ever"
      ],
      [
        ")",
        ","
      ],
      [
        "p",
        "ed"
      ],
      [
        "in",
        "ition"
      ],
      [
        "on",
        "t"
      ],
      [
        "Ġp",
        "l"
      ],
      [
        "Ġass",
        "ess"
      ],
      [
        "Ġ&",
        "\\"
      ],
      [
        "i",
        "um"
      ],
      [
        "o",
        "f"
      ],
      [
        "ion",
        "s"
      ],
      [
        "Ġon",
        "ly"
      ],
      [
        "Ġwhe",
        "re"
      ],
      [
        "si",
        "de"
      ],
      [
        "Ġind",
        "ustr"
      ],
      [
        "Ġpre",
        "m"
      ],
      [
        "Ġcur",
        "rent"
      ],
      [
        "Ġdo",
        "es"
      ],
      [
        "Ġmult",
        "i"
      ],
      [
        "i",
        "a"
      ],
      [
        "Ġ",
        "}"
      ],
      [
        "Ġ",
        "qu"
      ],
      [
        "Ġo",
        "per"
      ],
      [
        "Ġin",
        "to"
      ],
      [
        "Ġe",
        "ach"
      ],
      [
        "Ġl",
        "ook"
      ],
      [
        "Ġpro",
        "du"
      ],
      [
        "ĠE",
        "x"
      ],
      [
        "st",
        "and"
      ],
      [
        "Ġvari",
        "able"
      ],
      [
        "Ġcalcul",
        "ated"
      ],
      [
        "Ġconsi",
        "der"
      ],
      [
        "Ġpred",
        "ict"
      ],
      [
        "Ġprem",
        "ium"
      ],
      [
        "re",
        "ci"
      ],
      [
        "Ġe",
        "valu"
      ],
      [
        "ol",
        "low"
      ],
      [
        "Ġn",
        "o"
      ],
      [
        "ort",
        "h"
      ],
      [
        "Ġ1",
        "0"
      ],
      [
        "Ġshare",
        "holders"
      ],
      [
        "Ġdetermin",
        "e"
      ],
      [
        "ef",
        "inition"
      ],
      [
        "g",
        "in"
      ],
      [
        "v",
        "es"
      ],
      [
        "Ġ",
        "\""
      ],
      [
        "Ġ",
        "L"
      ],
      [
        "Ġ",
        "k"
      ],
      [
        "re",
        "at"
      ],
      [
        "Ġf",
        "ollow"
      ],
      [
        "Ġd",
        "ist"
      ],
      [
        "Ġl",
        "ong"
      ],
      [
        "Ġal",
        "pha"
      ],
      [
        "Ġcalcul",
        "ate"
      ],
      [
        "ermin",
        "al"
      ],
      [
        "Ġ2",
        "0"
      ],
      [
        "rib",
        "ut"
      ],
      [
        "P",
        "S"
      ],
      [
        "f",
        "er"
      ],
      [
        "Ã",
        "Ĺ"
      ],
      [
        "Ġ",
        "+"
      ],
      [
        "al",
        "igned"
      ],
      [
        "Ġp",
        "ur"
      ],
      [
        "Ġp",
        "ot"
      ],
      [
        "Ġd",
        "own"
      ],
      [
        "Ġw",
        "orth"
      ],
      [
        "Ġh",
        "ist"
      ],
      [
        "ate",
        "g"
      ],
      [
        "ĠInvest",
        "ors"
      ],
      [
        "Ġindic",
        "ates"
      ],
      [
        "Ġmet",
        "ho"
      ],
      [
        "âĪ",
        "Ĵ"
      ],
      [
        "Ġpot",
        "ential"
      ],
      [
        "k",
        "s"
      ],
      [
        "Ġa",
        "r"
      ],
      [
        "Ġa",
        "pp"
      ],
      [
        "Ġf",
        "ore"
      ],
      [
        "Ġinvest",
        "ing"
      ],
      [
        "Ġfr",
        "ont"
      ],
      [
        "Ġbuy",
        "er"
      ],
      [
        "Ġpos",
        "ition"
      ],
      [
        "Ġmean",
        "s"
      ],
      [
        "Ġsim",
        "ul"
      ],
      [
        "Ġestim",
        "ate"
      ],
      [
        "Ġmon",
        "ey"
      ],
      [
        "f",
        "ter"
      ],
      [
        "Ġ",
        "V"
      ],
      [
        "Ġ",
        "X"
      ],
      [
        "Ġt",
        "ren"
      ],
      [
        "ĠA",
        "l"
      ],
      [
        "Ġtra",
        "de"
      ],
      [
        "Ġuse",
        "ful"
      ],
      [
        "pl",
        "ied"
      ],
      [
        "Ġmet",
        "ric"
      ],
      [
        "ĠG",
        "ree"
      ],
      [
        "Ġfact",
        "ors"
      ],
      [
        "m",
        "at"
      ],
      [
        "r",
        "it"
      ],
      [
        "s",
        "te"
      ],
      [
        "v",
        "en"
      ],
      [
        "Ġthe",
        "m"
      ],
      [
        "or",
        "ical"
      ],
      [
        "Ġm",
        "in"
      ],
      [
        "Ġm",
        "at"
      ],
      [
        "ĠT",
        "o"
      ],
      [
        "Ġh",
        "ol"
      ],
      [
        "ve",
        "l"
      ],
      [
        "ĠC",
        "om"
      ],
      [
        "Ġequ",
        "al"
      ],
      [
        "Ġabo",
        "ut"
      ],
      [
        "Ġspe",
        "c"
      ],
      [
        "A",
        "C"
      ],
      [
        "Ġ",
        "J"
      ],
      [
        "Ġ",
        "ent"
      ],
      [
        "Ġf",
        "e"
      ],
      [
        "et",
        "a"
      ],
      [
        "Ġcomp",
        "ar"
      ],
      [
        "res",
        "s"
      ],
      [
        "Ġg",
        "reat"
      ],
      [
        "ch",
        "as"
      ],
      [
        "ot",
        "her"
      ],
      [
        "Ġsh",
        "ow"
      ],
      [
        "Ġvari",
        "ance"
      ],
      [
        "ff",
        "ect"
      ],
      [
        "iz",
        "e"
      ],
      [
        "Ġlike",
        "ly"
      ],
      [
        "Ġle",
        "vel"
      ],
      [
        "Ġderiv",
        "atives"
      ],
      [
        "Ġimp",
        "ort"
      ],
      [
        "Ġag",
        "ain"
      ],
      [
        "Ġpur",
        "chas"
      ],
      [
        "Ġfront",
        "ier"
      ],
      [
        "AC",
        "C"
      ],
      [
        "g",
        "ing"
      ],
      [
        "h",
        "ip"
      ],
      [
        "t",
        "ain"
      ],
      [
        "u",
        "e"
      ],
      [
        "Ġa",
        "fter"
      ],
      [
        "Ġin",
        "v"
      ],
      [
        "Ġre",
        "g"
      ],
      [
        "ul",
        "ar"
      ],
      [
        "iv",
        "en"
      ],
      [
        "Ġl",
        "ar"
      ],
      [
        "ĠThe",
        "se"
      ],
      [
        "ot",
        "h"
      ],
      [
        "ill",
        "ion"
      ],
      [
        "ĠM",
        "on"
      ],
      [
        "Ġsu",
        "b"
      ],
      [
        "iz",
        "ed"
      ],
      [
        "Ġser",
        "ies"
      ],
      [
        "reci",
        "ation"
      ],
      [
        "Ġk",
        "n"
      ],
      [
        "Ġhist",
        "orical"
      ],
      [
        "%",
        ","
      ],
      [
        "c",
        "om"
      ],
      [
        "o",
        "ped"
      ],
      [
        "Ġt",
        "erm"
      ],
      [
        "Ġa",
        "ct"
      ],
      [
        "he",
        "n"
      ],
      [
        "Ġs",
        "o"
      ],
      [
        "ar",
        "lo"
      ],
      [
        "im",
        "it"
      ],
      [
        "ĠThe",
        "re"
      ],
      [
        "le",
        "ct"
      ],
      [
        "Ġus",
        "es"
      ],
      [
        "ch",
        "ange"
      ],
      [
        "Ġwh",
        "at"
      ],
      [
        "ĠC",
        "arlo"
      ],
      [
        "ations",
        "hip"
      ],
      [
        "Ġne",
        "ed"
      ],
      [
        "Ġrel",
        "ationship"
      ],
      [
        "Ġstr",
        "ateg"
      ],
      [
        "Ġmeas",
        "ures"
      ],
      [
        "ĠInvest",
        "oped"
      ],
      [
        "just",
        "ed"
      ],
      [
        "Ġabo",
        "ve"
      ],
      [
        "Ġimport",
        "ant"
      ],
      [
        "ĠMon",
        "te"
      ],
      [
        "ĠInvestoped",
        "ia"
      ],
      [
        "%",
        "."
      ],
      [
        "c",
        "y"
      ],
      [
        "c",
        "is"
      ],
      [
        "l",
        "ack"
      ],
      [
        "u",
        "ch"
      ],
      [
        "v",
        "ed"
      ],
      [
        "w",
        "he"
      ],
      [
        "Ġ",
        "/"
      ],
      [
        "Ġ",
        "Y"
      ],
      [
        "Ġs",
        "p"
      ],
      [
        "it",
        "ive"
      ],
      [
        "Ġb",
        "al"
      ],
      [
        "Ġm",
        "ust"
      ],
      [
        "Ġth",
        "ose"
      ],
      [
        "ol",
        "es"
      ],
      [
        "ch",
        "oles"
      ],
      [
        "st",
        "s"
      ],
      [
        "Ġcalcul",
        "ation"
      ],
      [
        "ual",
        "ly"
      ],
      [
        "Ġman",
        "ag"
      ],
      [
        "Ġyear",
        "s"
      ],
      [
        "Ġam",
        "ount"
      ],
      [
        "Ġpoint",
        "s"
      ],
      [
        "Ġty",
        "p"
      ],
      [
        "Ġfir",
        "m"
      ],
      [
        "d",
        "es"
      ],
      [
        "d",
        "ition"
      ],
      [
        "l",
        "ig"
      ],
      [
        "Ġs",
        "et"
      ],
      [
        "Ġb",
        "ook"
      ],
      [
        "Ġm",
        "illion"
      ],
      [
        "Ġm",
        "uch"
      ],
      [
        "Ġd",
        "ate"
      ],
      [
        "Ġv",
        "ar"
      ],
      [
        "Ġn",
        "orm"
      ],
      [
        "Ġtra",
        "ders"
      ],
      [
        "ĠB",
        "lack"
      ],
      [
        "Ġman",
        "y"
      ],
      [
        "Ġma",
        "ke"
      ],
      [
        "Ġtax",
        "es"
      ],
      [
        "Ġdist",
        "ribut"
      ],
      [
        "Ġgreat",
        "er"
      ],
      [
        "<",
        "|"
      ],
      [
        "C",
        "on"
      ],
      [
        "D",
        "efinition"
      ],
      [
        "P",
        "T"
      ],
      [
        "c",
        "ast"
      ],
      [
        "s",
        "et"
      ],
      [
        "s",
        "um"
      ],
      [
        "t",
        "he"
      ],
      [
        "|",
        ">"
      ],
      [
        "ic",
        "e"
      ],
      [
        "Ġr",
        "ight"
      ],
      [
        "Ġl",
        "imit"
      ],
      [
        "Ġg",
        "iven"
      ],
      [
        "ch",
        "n"
      ],
      [
        "Ġse",
        "e"
      ],
      [
        "end",
        "of"
      ],
      [
        "Ġtra",
        "ding"
      ],
      [
        "si",
        "ble"
      ],
      [
        "ĠW",
        "ACC"
      ],
      [
        "Ġmetho",
        "d"
      ],
      [
        "Ġapp",
        "ro"
      ],
      [
        "whe",
        "re"
      ],
      [
        "Con",
        "cept"
      ],
      [
        "endof",
        "text"
      ],
      [
        "5",
        "0"
      ],
      [
        "S",
        "choles"
      ],
      [
        "c",
        "ome"
      ],
      [
        "e",
        "p"
      ],
      [
        "er",
        "cis"
      ],
      [
        "Ġre",
        "al"
      ],
      [
        "Ġre",
        "ce"
      ],
      [
        "Ġre",
        "qu"
      ],
      [
        "il",
        "ities"
      ],
      [
        "Ġst",
        "ate"
      ],
      [
        "im",
        "es"
      ],
      [
        "Ġfor",
        "ward"
      ],
      [
        "io",
        "us"
      ],
      [
        "Ġg",
        "ood"
      ],
      [
        "Ġrisk",
        "s"
      ],
      [
        "Ġstock",
        "s"
      ],
      [
        "am",
        "ma"
      ],
      [
        "Ġportfol",
        "ios"
      ],
      [
        "âĢĭ",
        "="
      ],
      [
        "ĠW",
        "h"
      ],
      [
        "Ġwe",
        "ll"
      ],
      [
        "Ġprofit",
        "ability"
      ],
      [
        "Ġdiv",
        "ers"
      ],
      [
        "Ġob",
        "lig"
      ],
      [
        "Ġmulti",
        "ple"
      ],
      [
        "Ġ20",
        "2"
      ],
      [
        "Ġfore",
        "cast"
      ],
      [
        "p",
        "an"
      ],
      [
        "y",
        "n"
      ],
      [
        "Ġ",
        "x"
      ],
      [
        "in",
        "ce"
      ],
      [
        "Ġp",
        "resent"
      ],
      [
        "Ġp",
        "ast"
      ],
      [
        "Ġf",
        "all"
      ],
      [
        "Ġb",
        "oth"
      ],
      [
        "Ġre",
        "f"
      ],
      [
        "ent",
        "s"
      ],
      [
        "Ġex",
        "ercis"
      ],
      [
        "Ġcon",
        "st"
      ],
      [
        "Ġ1",
        "00"
      ],
      [
        "ari",
        "ance"
      ],
      [
        "Ġbet",
        "ter"
      ],
      [
        "Ġinvestment",
        "s"
      ],
      [
        "ĠD",
        "CF"
      ],
      [
        "iz",
        "ation"
      ],
      [
        "Ġassum",
        "e"
      ],
      [
        "ie",
        "l"
      ],
      [
        "ĠU",
        "n"
      ],
      [
        "Ġincreas",
        "e"
      ],
      [
        "Ġte",
        "chn"
      ],
      [
        "Ġnum",
        "ber"
      ],
      [
        "Ġdivid",
        "end"
      ],
      [
        "Ġindustr",
        "y"
      ],
      [
        "Ġprodu",
        "ct"
      ],
      [
        "stand",
        "ing"
      ],
      [
        "Ġsimul",
        "ation"
      ],
      [
        "Ġspec",
        "ific"
      ],
      [
        "Ġagain",
        "st"
      ],
      [
        "Ġinv",
        "ol"
      ],
      [
        "Ġbal",
        "ance"
      ],
      [
        "b",
        "e"
      ],
      [
        "c",
        "er"
      ],
      [
        "}",
        "\\"
      ],
      [
        "Ġ",
        "3"
      ],
      [
        "Ġs",
        "m"
      ],
      [
        "Ġs",
        "ign"
      ],
      [
        "Ġin",
        "st"
      ],
      [
        "iv",
        "id"
      ],
      [
        "Ġl",
        "i"
      ],
      [
        "Ġcomp",
        "ared"
      ],
      [
        "Ġrat",
        "ios"
      ],
      [
        "Ġpos",
        "sible"
      ],
      [
        "Ġdep",
        "reciation"
      ],
      [
        "Ġsecur",
        "ities"
      ],
      [
        "Ġderiv",
        "ative"
      ],
      [
        "Ġprovi",
        "de"
      ],
      [
        "con",
        "om"
      ],
      [
        "Ġtren",
        "ds"
      ],
      [
        "c",
        "ent"
      ],
      [
        "f",
        "ra"
      ],
      [
        "o",
        "ut"
      ],
      [
        "r",
        "oss"
      ],
      [
        "Ġ",
        "just"
      ],
      [
        "Ġt",
        "erminal"
      ],
      [
        "Ġa",
        "p"
      ],
      [
        "re",
        "yn"
      ],
      [
        "Ġthe",
        "ory"
      ],
      [
        "at",
        "ist"
      ],
      [
        "er",
        "y"
      ],
      [
        "is",
        "k"
      ],
      [
        "Ġf",
        "ig"
      ],
      [
        "Ġb",
        "ro"
      ],
      [
        "Ġre",
        "du"
      ],
      [
        "ur",
        "ing"
      ],
      [
        "ut",
        "ures"
      ],
      [
        "Ġvalu",
        "ation"
      ],
      [
        "Ġpro",
        "b"
      ],
      [
        "Ġrat",
        "es"
      ],
      [
        "Ġy",
        "our"
      ],
      [
        "ĠE",
        "PS"
      ],
      [
        "ĠB",
        "e"
      ],
      [
        "Ġad",
        "v"
      ],
      [
        "Ġpos",
        "itive"
      ],
      [
        "Ġwe",
        "re"
      ],
      [
        "Ġsell",
        "er"
      ],
      [
        "valu",
        "ed"
      ],
      [
        "Ġ5",
        "00"
      ],
      [
        "ĠCom",
        "pan"
      ],
      [
        "Ġdistribut",
        "ion"
      ],
      [
        "fra",
        "c"
      ],
      [
        "reyn",
        "or"
      ],
      [
        "Y",
        "Z"
      ],
      [
        "c",
        "es"
      ],
      [
        "d",
        "ay"
      ],
      [
        "l",
        "in"
      ],
      [
        "p",
        "or"
      ],
      [
        "Ï",
        "ĥ"
      ],
      [
        "Ġt",
        "r"
      ],
      [
        "Ġb",
        "on"
      ],
      [
        "Ġd",
        "es"
      ],
      [
        "Ġd",
        "ire"
      ],
      [
        "Ġw",
        "ant"
      ],
      [
        "Ġis",
        "n"
      ],
      [
        "il",
        "ar"
      ],
      [
        "Ġl",
        "ine"
      ],
      [
        "Ġex",
        "cess"
      ],
      [
        "Ġn",
        "on"
      ],
      [
        "ort",
        "ization"
      ],
      [
        "Ġpric",
        "ing"
      ],
      [
        "oun",
        "d"
      ],
      [
        "Ġexp",
        "ens"
      ],
      [
        "Ġanaly",
        "z"
      ],
      [
        "Ġta",
        "king"
      ],
      [
        "ĠW",
        "hen"
      ],
      [
        "Ġaccount",
        "ing"
      ],
      [
        "Ġdec",
        "reas"
      ],
      [
        "Ġhelp",
        "s"
      ],
      [
        "Ġmove",
        "ments"
      ],
      [
        "Ġevalu",
        "ate"
      ],
      [
        "Ġdown",
        "side"
      ],
      [
        "ĠX",
        "YZ"
      ],
      [
        "Ġnorm",
        "al"
      ],
      [
        "m",
        "e"
      ],
      [
        "Ġ",
        "en"
      ],
      [
        "in",
        "o"
      ],
      [
        "Ġo",
        "pt"
      ],
      [
        "Ġin",
        "s"
      ],
      [
        "Ġf",
        "ree"
      ],
      [
        "ĠT",
        "reynor"
      ],
      [
        "Ġst",
        "atist"
      ],
      [
        "Ġbe",
        "ing"
      ],
      [
        "Ġcom",
        "m"
      ],
      [
        "ort",
        "ino"
      ],
      [
        "Ġg",
        "o"
      ],
      [
        "Ġg",
        "et"
      ],
      [
        "qu",
        "ity"
      ],
      [
        "Ġanaly",
        "sts"
      ],
      [
        "pl",
        "es"
      ],
      [
        "Ġfinanc",
        "ing"
      ],
      [
        "Ġman",
        "age"
      ],
      [
        "Ġcost",
        "s"
      ],
      [
        "Ġassum",
        "es"
      ],
      [
        "Ġcall",
        "ed"
      ],
      [
        "Ġdel",
        "iv"
      ],
      [
        "Ġmon",
        "th"
      ],
      [
        "Ġspe",
        "cul"
      ],
      [
        "Ġinclu",
        "de"
      ],
      [
        "Ġdoes",
        "n"
      ],
      [
        "Ġkn",
        "own"
      ],
      [
        "Ġstate",
        "ment"
      ],
      [
        "Ġredu",
        "ce"
      ],
      [
        "f",
        "ect"
      ],
      [
        "g",
        "g"
      ],
      [
        "g",
        "er"
      ],
      [
        "i",
        "x"
      ],
      [
        "x",
        "im"
      ],
      [
        "Ġ",
        "ke"
      ],
      [
        "he",
        "et"
      ],
      [
        "at",
        "or"
      ],
      [
        "er",
        "ic"
      ],
      [
        "Ġs",
        "y"
      ],
      [
        "al",
        "es"
      ],
      [
        "Ġf",
        "a"
      ],
      [
        "Ġb",
        "ar"
      ],
      [
        "Ġw",
        "rit"
      ],
      [
        "il",
        "ing"
      ],
      [
        "Ġex",
        "change"
      ],
      [
        "ab",
        "ilities"
      ],
      [
        "Ġ1",
        "9"
      ],
      [
        "Ġexp",
        "l"
      ],
      [
        "ain",
        "ed"
      ],
      [
        "Ġind",
        "ivid"
      ],
      [
        "Ġover",
        "all"
      ],
      [
        "Ġassum",
        "ptions"
      ],
      [
        "Ġfun",
        "ds"
      ],
      [
        "ĠO",
        "n"
      ],
      [
        "Ġgener",
        "ally"
      ],
      [
        "Ġam",
        "ortization"
      ],
      [
        "ĠSt",
        "andard"
      ],
      [
        "Ġshow",
        "s"
      ],
      [
        "}\\",
        "\\"
      ],
      [
        "'",
        "re"
      ],
      [
        "i",
        "res"
      ],
      [
        "k",
        "es"
      ],
      [
        "p",
        "r"
      ],
      [
        "u",
        "ct"
      ],
      [
        "Ġ",
        "z"
      ],
      [
        "Ġ",
        "ÃĹ"
      ],
      [
        "er",
        "o"
      ],
      [
        "en",
        "ce"
      ],
      [
        "en",
        "se"
      ],
      [
        "Ġr",
        "ange"
      ],
      [
        "il",
        "y"
      ],
      [
        "ut",
        "ual"
      ],
      [
        "Ġcomp",
        "are"
      ],
      [
        "ĠThe",
        "y"
      ],
      [
        "de",
        "red"
      ],
      [
        "ĠA",
        "m"
      ],
      [
        "ĠS",
        "ortino"
      ],
      [
        "ĠF",
        "utures"
      ],
      [
        "Ġwh",
        "o"
      ],
      [
        "oun",
        "ter"
      ],
      [
        "Ġtra",
        "ded"
      ],
      [
        "ĠB",
        "eta"
      ],
      [
        "ib",
        "le"
      ],
      [
        "ĠO",
        "ptions"
      ],
      [
        "Ġconsi",
        "dered"
      ],
      [
        "Ġdepend",
        "ent"
      ],
      [
        "Ġloss",
        "es"
      ],
      [
        "tern",
        "ative"
      ],
      [
        "Ġterm",
        "s"
      ],
      [
        "Ġsm",
        "all"
      ],
      [
        "ĠBe",
        "cause"
      ],
      [
        "Ġindivid",
        "ual"
      ],
      [
        "o",
        "g"
      ],
      [
        "t",
        "y"
      ],
      [
        "t",
        "ical"
      ],
      [
        "Ġ",
        "âĢĭ"
      ],
      [
        "Ġ",
        "âĪĴ"
      ],
      [
        "Ġo",
        "pp"
      ],
      [
        "Ġs",
        "heet"
      ],
      [
        "al",
        "s"
      ],
      [
        "it",
        "e"
      ],
      [
        "Ġan",
        "other"
      ],
      [
        "ic",
        "ular"
      ],
      [
        "Ġe",
        "ven"
      ],
      [
        "Ġe",
        "conom"
      ],
      [
        "as",
        "on"
      ],
      [
        "Ġbe",
        "en"
      ],
      [
        "Ġris",
        "e"
      ],
      [
        "Ġus",
        "ually"
      ],
      [
        "if",
        "y"
      ],
      [
        "Ġse",
        "ct"
      ],
      [
        "ĠC",
        "on"
      ],
      [
        "ĠM",
        "PT"
      ],
      [
        "Ġha",
        "d"
      ],
      [
        "Ġcalcul",
        "ating"
      ],
      [
        "ĠD",
        "eriv"
      ],
      [
        "Ġindic",
        "ate"
      ],
      [
        "Ġdiffe",
        "ren"
      ],
      [
        "ific",
        "ation"
      ],
      [
        "Ġresult",
        "s"
      ],
      [
        "Ġpart",
        "icular"
      ],
      [
        "Ġ}",
        "{"
      ],
      [
        "Ġfollow",
        "ing"
      ],
      [
        "ĠGree",
        "ks"
      ],
      [
        "Ġmin",
        "us"
      ],
      [
        "Ġlar",
        "ge"
      ],
      [
        "Ġmanag",
        "ers"
      ],
      [
        "Ġrequ",
        "ire"
      ],
      [
        "Ġdividend",
        "s"
      ],
      [
        "be",
        "gin"
      ],
      [
        "Ġli",
        "abilities"
      ],
      [
        "ĠDeriv",
        "atives"
      ],
      [
        "1",
        "0"
      ],
      [
        "b",
        "f"
      ],
      [
        "c",
        "or"
      ],
      [
        "c",
        "lu"
      ],
      [
        "e",
        "g"
      ],
      [
        "g",
        "et"
      ],
      [
        "i",
        "qu"
      ],
      [
        "m",
        "s"
      ],
      [
        "n",
        "ual"
      ],
      [
        "s",
        "er"
      ],
      [
        "t",
        "imes"
      ],
      [
        "Ġ",
        "8"
      ],
      [
        "Ġc",
        "re"
      ],
      [
        "on",
        "e"
      ],
      [
        "is",
        "h"
      ],
      [
        "Ġm",
        "ain"
      ],
      [
        "ic",
        "s"
      ],
      [
        "Ġto",
        "ol"
      ],
      [
        "Ġbe",
        "low"
      ],
      [
        "Ġcom",
        "b"
      ],
      [
        "Ġex",
        "t"
      ],
      [
        "ate",
        "ly"
      ],
      [
        "ce",
        "l"
      ],
      [
        "Ġg",
        "ra"
      ],
      [
        "if",
        "ied"
      ],
      [
        "Ġcon",
        "t"
      ],
      [
        "Ġsh",
        "ort"
      ],
      [
        "Ġy",
        "iel"
      ],
      [
        "Ġper",
        "fect"
      ],
      [
        "ĠR",
        "at"
      ],
      [
        "ter",
        "m"
      ],
      [
        "Ġtra",
        "iling"
      ],
      [
        "text",
        "bf"
      ],
      [
        "Ġch",
        "o"
      ],
      [
        "Ġhed",
        "ging"
      ],
      [
        "Ġ\\\\",
        "&"
      ],
      [
        "Ġgener",
        "ate"
      ],
      [
        "Ġincreas",
        "es"
      ],
      [
        "Ġpurchas",
        "e"
      ],
      [
        "Ġsub",
        "tract"
      ],
      [
        "ĠY",
        "ou"
      ],
      [
        "Ġsp",
        "re"
      ],
      [
        "dition",
        "al"
      ],
      [
        "Ġsign",
        "ific"
      ],
      [
        "Ġprob",
        "ability"
      ],
      [
        "ĠCompan",
        "y"
      ],
      [
        "Ġopt",
        "im"
      ],
      [
        "eric",
        "an"
      ],
      [
        "Ġbar",
        "rel"
      ],
      [
        "ĠAm",
        "erican"
      ],
      [
        "T",
        "M"
      ],
      [
        "a",
        "x"
      ],
      [
        "c",
        "ial"
      ],
      [
        "l",
        "ess"
      ],
      [
        "o",
        "v"
      ],
      [
        "p",
        "end"
      ],
      [
        "s",
        "ist"
      ],
      [
        "w",
        "ay"
      ],
      [
        "Ġ",
        "end"
      ],
      [
        "Ġa",
        "ffect"
      ],
      [
        "Ġc",
        "ounter"
      ],
      [
        "Ġs",
        "w"
      ],
      [
        "Ġs",
        "ol"
      ],
      [
        "Ġp",
        "at"
      ],
      [
        "Ġin",
        "f"
      ],
      [
        "Ġin",
        "form"
      ],
      [
        "Ġw",
        "ide"
      ],
      [
        "Ġto",
        "day"
      ],
      [
        "Ġe",
        "ffect"
      ],
      [
        "Ġth",
        "r"
      ],
      [
        "Ġth",
        "ree"
      ],
      [
        "as",
        "h"
      ],
      [
        "as",
        "s"
      ],
      [
        "Ġcomp",
        "ares"
      ],
      [
        "ver",
        "al"
      ],
      [
        "ive",
        "ly"
      ],
      [
        "Ġse",
        "veral"
      ],
      [
        "Ġwith",
        "in"
      ],
      [
        "Ġ1",
        "2"
      ],
      [
        "ĠB",
        "y"
      ],
      [
        "Ġsu",
        "gg"
      ],
      [
        "arn",
        "ings"
      ],
      [
        "Ġtim",
        "es"
      ],
      [
        "Ġvolat",
        "ile"
      ],
      [
        "Ġma",
        "king"
      ],
      [
        "Ġrep",
        "ort"
      ],
      [
        "Ġprofit",
        "s"
      ],
      [
        "ad",
        "justed"
      ],
      [
        "Ġsim",
        "ilar"
      ],
      [
        "Ġestim",
        "ates"
      ],
      [
        "Ġinde",
        "pend"
      ],
      [
        "Ġcommon",
        "ly"
      ],
      [
        "Ġty",
        "pe"
      ],
      [
        "Ġoper",
        "ations"
      ],
      [
        "Ġoper",
        "ating"
      ],
      [
        "ĠGree",
        "k"
      ],
      [
        "Ġact",
        "ual"
      ],
      [
        "Ġstrateg",
        "y"
      ],
      [
        "Ġtyp",
        "ically"
      ],
      [
        "ĠWh",
        "ile"
      ],
      [
        "Ġdivers",
        "ification"
      ],
      [
        "Ġexpens",
        "es"
      ],
      [
        "Ġsy",
        "ste"
      ],
      [
        "Ġz",
        "ero"
      ],
      [
        "ĠRat",
        "io"
      ],
      [
        "Ġsugg",
        "est"
      ],
      [
        "Ġindepend",
        "ent"
      ],
      [
        "T",
        "C"
      ],
      [
        "a",
        "id"
      ],
      [
        "c",
        "ed"
      ],
      [
        "k",
        "er"
      ],
      [
        "Ġ",
        "4"
      ],
      [
        "re",
        "t"
      ],
      [
        "Ġo",
        "w"
      ],
      [
        "Ġthe",
        "ore"
      ],
      [
        "Ġs",
        "um"
      ],
      [
        "Ġs",
        "ens"
      ],
      [
        "Ġs",
        "ales"
      ],
      [
        "an",
        "g"
      ],
      [
        "Ġp",
        "e"
      ],
      [
        "Ġin",
        "t"
      ],
      [
        "Ġf",
        "it"
      ],
      [
        "Ġf",
        "ound"
      ],
      [
        "Ġe",
        "l"
      ],
      [
        "om",
        "et"
      ],
      [
        "Ġv",
        "ers"
      ],
      [
        "ur",
        "y"
      ],
      [
        "Ġl",
        "ast"
      ],
      [
        "ation",
        "al"
      ],
      [
        "Ġst",
        "art"
      ],
      [
        "ol",
        "l"
      ],
      [
        "Ġg",
        "r"
      ],
      [
        "ver",
        "se"
      ],
      [
        "ve",
        "lo"
      ],
      [
        "ain",
        "s"
      ],
      [
        "ĠTh",
        "at"
      ],
      [
        "Ġbuy",
        "ing"
      ],
      [
        "Ġta",
        "ke"
      ],
      [
        "Ġad",
        "ding"
      ],
      [
        "Ġcl",
        "ose"
      ],
      [
        "Ġmove",
        "ment"
      ],
      [
        "Ġinclu",
        "ding"
      ],
      [
        "Ġindustr",
        "ies"
      ],
      [
        "mat",
        "ic"
      ],
      [
        "Ġcompar",
        "ing"
      ],
      [
        "ress",
        "ion"
      ],
      [
        "Ġvar",
        "ious"
      ],
      [
        "Ġsignific",
        "ant"
      ],
      [
        "T",
        "F"
      ],
      [
        "c",
        "us"
      ],
      [
        "o",
        "d"
      ],
      [
        "o",
        "pe"
      ],
      [
        "r",
        "y"
      ],
      [
        "he",
        "ck"
      ],
      [
        "he",
        "mat"
      ],
      [
        "in",
        "d"
      ],
      [
        "Ġc",
        "er"
      ],
      [
        "Ġc",
        "ents"
      ],
      [
        "an",
        "s"
      ],
      [
        "Ġf",
        "ar"
      ],
      [
        "Ġf",
        "ive"
      ],
      [
        "Ġb",
        "est"
      ],
      [
        "Ġm",
        "is"
      ],
      [
        "Ġof",
        "f"
      ],
      [
        "Ġof",
        "fer"
      ],
      [
        "Ġan",
        "nual"
      ],
      [
        "Ġd",
        "ay"
      ],
      [
        "Ġr",
        "and"
      ],
      [
        "Ġre",
        "m"
      ],
      [
        "ul",
        "l"
      ],
      [
        "Ġv",
        "ery"
      ],
      [
        "ĠT",
        "erminal"
      ],
      [
        "iv",
        "ity"
      ],
      [
        "Ġh",
        "and"
      ],
      [
        "im",
        "e"
      ],
      [
        "Ġde",
        "f"
      ],
      [
        "Ġde",
        "velo"
      ],
      [
        "ort",
        "ion"
      ],
      [
        "der",
        "n"
      ],
      [
        "Ġpro",
        "p"
      ],
      [
        "Ġpro",
        "cess"
      ],
      [
        "Ġmo",
        "ves"
      ],
      [
        "ĠS",
        "ince"
      ],
      [
        "Ġwith",
        "out"
      ],
      [
        "Ġrat",
        "her"
      ],
      [
        "Ġcas",
        "e"
      ],
      [
        "Ġunder",
        "stand"
      ],
      [
        "Ġbu",
        "il"
      ],
      [
        "ĠD",
        "e"
      ],
      [
        "Ġac",
        "cur"
      ],
      [
        "Ġpre",
        "fer"
      ],
      [
        "Ġbuy",
        "ers"
      ],
      [
        "Ġim",
        "plied"
      ],
      [
        "ĠAs",
        "sum"
      ],
      [
        "ĠAn",
        "other"
      ],
      [
        "âĪ",
        "ĳ"
      ],
      [
        "Ġpart",
        "ies"
      ],
      [
        "Ġfir",
        "st"
      ],
      [
        "Ġwor",
        "ds"
      ],
      [
        "Ġmetric",
        "s"
      ],
      [
        "Ġmat",
        "hemat"
      ],
      [
        "Ġent",
        "ire"
      ],
      [
        "com",
        "es"
      ],
      [
        "Ġref",
        "lect"
      ],
      [
        "Ġconst",
        "ant"
      ],
      [
        "Ġinst",
        "ru"
      ],
      [
        "Ġfig",
        "ure"
      ],
      [
        "Ġbon",
        "ds"
      ],
      [
        "Ġdire",
        "ction"
      ],
      [
        "Ġstatist",
        "ical"
      ],
      [
        "Ġke",
        "y"
      ],
      [
        "Ġdifferen",
        "ce"
      ],
      [
        "eg",
        "a"
      ],
      [
        "Ġcomb",
        "in"
      ],
      [
        "sist",
        "ent"
      ],
      [
        "Ġwide",
        "ly"
      ],
      [
        "Ġcer",
        "tain"
      ],
      [
        "Ġrand",
        "om"
      ],
      [
        ",",
        "\""
      ],
      [
        "T",
        "he"
      ],
      [
        "b",
        "ers"
      ],
      [
        "c",
        "l"
      ],
      [
        "e",
        "x"
      ],
      [
        "g",
        "th"
      ],
      [
        "p",
        "art"
      ],
      [
        "s",
        "on"
      ],
      [
        "v",
        "ant"
      ],
      [
        "v",
        "ail"
      ],
      [
        "y",
        "p"
      ],
      [
        "Ġ",
        "âĢ"
      ],
      [
        "Ġo",
        "bt"
      ],
      [
        "is",
        "e"
      ],
      [
        "is",
        "on"
      ],
      [
        "Ġs",
        "c"
      ],
      [
        "or",
        "por"
      ],
      [
        "Ġp",
        "aid"
      ],
      [
        "it",
        "her"
      ],
      [
        "it",
        "ial"
      ],
      [
        "Ġin",
        "itial"
      ],
      [
        "Ġd",
        "ail"
      ],
      [
        "Ġd",
        "uring"
      ],
      [
        "Ġe",
        "as"
      ],
      [
        "ct",
        "u"
      ],
      [
        "Ġpr",
        "act"
      ],
      [
        "Ġbe",
        "h"
      ],
      [
        "un",
        "d"
      ],
      [
        "Ġn",
        "ow"
      ],
      [
        "Ġg",
        "amma"
      ],
      [
        "Ġal",
        "low"
      ],
      [
        "Ġper",
        "cent"
      ],
      [
        "ortfol",
        "io"
      ],
      [
        "Ġtra",
        "ck"
      ],
      [
        "Ġfin",
        "d"
      ],
      [
        "Ġfin",
        "ance"
      ],
      [
        "id",
        "ent"
      ],
      [
        "Ġrel",
        "ated"
      ],
      [
        "Ġad",
        "just"
      ],
      [
        "Ġad",
        "justed"
      ],
      [
        "lu",
        "ctu"
      ],
      [
        "Ġsell",
        "ing"
      ],
      [
        "Ġle",
        "verage"
      ],
      [
        "Ġestim",
        "ated"
      ],
      [
        "Ġpo",
        "p"
      ],
      [
        "Ġpay",
        "ments"
      ],
      [
        "Ġte",
        "ll"
      ],
      [
        "Ġnum",
        "bers"
      ],
      [
        "con",
        "d"
      ],
      [
        "ĠEx",
        "cel"
      ],
      [
        "Ġar",
        "r"
      ],
      [
        "Ġfe",
        "w"
      ],
      [
        "Ġreg",
        "ression"
      ],
      [
        "ĠThere",
        "fore"
      ],
      [
        "Ġstrateg",
        "ies"
      ],
      [
        "Ġrece",
        "iv"
      ],
      [
        "Ġtechn",
        "iqu"
      ],
      [
        "Ġwrit",
        "er"
      ],
      [
        "Ġgra",
        "ph"
      ],
      [
        "Ġspre",
        "ad"
      ],
      [
        "Ġow",
        "n"
      ],
      [
        "ĠâĢ",
        "ľ"
      ],
      [
        "Ġdail",
        "y"
      ],
      [
        "E",
        "BITDA"
      ],
      [
        "P",
        "V"
      ],
      [
        "b",
        "l"
      ],
      [
        "s",
        "ing"
      ],
      [
        "v",
        "ing"
      ],
      [
        "w",
        "or"
      ],
      [
        "Î",
        "²"
      ],
      [
        "Ġ",
        "7"
      ],
      [
        "Ġ",
        "K"
      ],
      [
        "Ġ",
        "ident"
      ],
      [
        "Ġt",
        "end"
      ],
      [
        "he",
        "d"
      ],
      [
        "Ġc",
        "rit"
      ],
      [
        "Ġs",
        "qu"
      ],
      [
        "it",
        "ivity"
      ],
      [
        "Ġf",
        "luctu"
      ],
      [
        "Ġb",
        "ack"
      ],
      [
        "en",
        "cy"
      ],
      [
        "Ġm",
        "ar"
      ],
      [
        "ic",
        "k"
      ],
      [
        "Ġe",
        "ither"
      ],
      [
        "Ġre",
        "le"
      ],
      [
        "ur",
        "ther"
      ],
      [
        "ur",
        "ope"
      ],
      [
        "Ġl",
        "in"
      ],
      [
        "Ġst",
        "ren"
      ],
      [
        "Ġst",
        "able"
      ],
      [
        "ig",
        "ma"
      ],
      [
        "ort",
        "un"
      ],
      [
        "âĢ",
        "Ŀ"
      ],
      [
        "Ġcon",
        "cept"
      ],
      [
        "ĠF",
        "orm"
      ],
      [
        "ĠF",
        "und"
      ],
      [
        "ĠE",
        "ach"
      ],
      [
        "ĠE",
        "quity"
      ],
      [
        "ĠE",
        "urope"
      ],
      [
        "Ġmarket",
        "s"
      ],
      [
        "Ġexp",
        "ires"
      ],
      [
        "Ġequ",
        "ation"
      ],
      [
        "Ġvari",
        "ation"
      ],
      [
        "Ġtra",
        "der"
      ],
      [
        "Ġne",
        "w"
      ],
      [
        "Ġover",
        "valued"
      ],
      [
        "ight",
        "ed"
      ],
      [
        "Ġmean",
        "ing"
      ],
      [
        "Ġcur",
        "ren"
      ],
      [
        "Ġaccount",
        "s"
      ],
      [
        "Ġimp",
        "act"
      ],
      [
        "Ġimp",
        "ro"
      ],
      [
        "Ġben",
        "ef"
      ],
      [
        "ĠN",
        "o"
      ],
      [
        "Ġdec",
        "is"
      ],
      [
        "Ġag",
        "ree"
      ],
      [
        "Ġob",
        "ser"
      ],
      [
        "Ġlook",
        "ing"
      ],
      [
        "ĠAl",
        "pha"
      ],
      [
        "Ġhol",
        "d"
      ],
      [
        "Ġcompar",
        "ison"
      ],
      [
        "Ġlar",
        "ger"
      ],
      [
        "Ġtyp",
        "es"
      ],
      [
        "Ġoblig",
        "ation"
      ],
      [
        "Ġexercis",
        "e"
      ],
      [
        "Ġexercis",
        "ed"
      ],
      [
        "Ġinvol",
        "ved"
      ],
      [
        "Ġadv",
        "is"
      ],
      [
        "Ġins",
        "ight"
      ],
      [
        "Ġmanage",
        "ment"
      ],
      [
        "Ġdeliv",
        "er"
      ],
      [
        "Ġsect",
        "or"
      ],
      [
        "Ġcounter",
        "part"
      ],
      [
        "Ġsw",
        "ap"
      ],
      [
        "Ġinform",
        "ation"
      ],
      [
        "Ġthr",
        "ough"
      ],
      [
        "Ġsens",
        "itivity"
      ],
      [
        "ĠAssum",
        "e"
      ],
      [
        "Ġmar",
        "gin"
      ],
      [
        "Ġstren",
        "gth"
      ],
      [
        "ĠEurope",
        "an"
      ],
      [
        "c",
        "ash"
      ],
      [
        "f",
        "or"
      ],
      [
        "k",
        "en"
      ],
      [
        "l",
        "ie"
      ],
      [
        "m",
        "and"
      ],
      [
        "n",
        "ot"
      ],
      [
        "p",
        "on"
      ],
      [
        "p",
        "ly"
      ],
      [
        "p",
        "ut"
      ],
      [
        "s",
        "igma"
      ],
      [
        "Ġ",
        "ut"
      ],
      [
        "Ġ",
        "Ïĥ"
      ],
      [
        "at",
        "ors"
      ],
      [
        "Ġs",
        "ince"
      ],
      [
        "Ġs",
        "omet"
      ],
      [
        "al",
        "ity"
      ],
      [
        "al",
        "cul"
      ],
      [
        "al",
        "th"
      ],
      [
        "or",
        "row"
      ],
      [
        "Ġin",
        "ter"
      ],
      [
        "Ġb",
        "o"
      ],
      [
        "ar",
        "y"
      ],
      [
        "ic",
        "ult"
      ],
      [
        "Ġto",
        "o"
      ],
      [
        "Ġre",
        "ven"
      ],
      [
        "Ġre",
        "ason"
      ],
      [
        "Ġth",
        "ough"
      ],
      [
        "ent",
        "ion"
      ],
      [
        "ĠT",
        "reas"
      ],
      [
        "ĠT",
        "ime"
      ],
      [
        "Ġl",
        "ock"
      ],
      [
        "Ġbe",
        "lie"
      ],
      [
        "ut",
        "e"
      ],
      [
        "Ġex",
        "ist"
      ],
      [
        "Ġex",
        "clu"
      ],
      [
        "os",
        "ure"
      ],
      [
        "Ġde",
        "mand"
      ],
      [
        "ĠI",
        "m"
      ],
      [
        "le",
        "x"
      ],
      [
        "ĠA",
        "d"
      ],
      [
        "Ġcan",
        "not"
      ],
      [
        "Ġmo",
        "dern"
      ],
      [
        "ĠS",
        "u"
      ],
      [
        "Ġse",
        "cond"
      ],
      [
        "ĠC",
        "alcul"
      ],
      [
        "Ġ1",
        "5"
      ],
      [
        "end",
        "ing"
      ],
      [
        "Ġexp",
        "ense"
      ],
      [
        "ĠM",
        "an"
      ],
      [
        "Ġequ",
        "ip"
      ],
      [
        "se",
        "ll"
      ],
      [
        "Ġunder",
        "valued"
      ],
      [
        "Ġhe",
        "alth"
      ],
      [
        "Ġne",
        "xt"
      ],
      [
        "Ġne",
        "cess"
      ],
      [
        "ĠD",
        "efinition"
      ],
      [
        "ear",
        "son"
      ],
      [
        "Ġad",
        "d"
      ],
      [
        "Ġad",
        "ditional"
      ],
      [
        "Ġma",
        "xim"
      ],
      [
        "Ġdiff",
        "icult"
      ],
      [
        "Ġhow",
        "ever"
      ],
      [
        "Ġsim",
        "ply"
      ],
      [
        "ĠG",
        "amma"
      ],
      [
        "Ġcl",
        "os"
      ],
      [
        "Ġdepend",
        "s"
      ],
      [
        "Ġdiscount",
        "ed"
      ],
      [
        "Ġprovi",
        "des"
      ],
      [
        "Ġway",
        "s"
      ],
      [
        "of",
        "t"
      ],
      [
        "Ġqu",
        "ant"
      ],
      [
        "Ġconsider",
        "ing"
      ],
      [
        "ste",
        "ad"
      ],
      [
        "Ġhol",
        "der"
      ],
      [
        "Ġent",
        "er"
      ],
      [
        "Ġlevel",
        "s"
      ],
      [
        "Ġvar",
        "y"
      ],
      [
        "Ġlimit",
        "ations"
      ],
      [
        "Ġrece",
        "ive"
      ],
      [
        "Ġconst",
        "ru"
      ],
      [
        "Ġproduct",
        "s"
      ],
      [
        "Ġbro",
        "ker"
      ],
      [
        "Ġanalyz",
        "e"
      ],
      [
        "Ġdecreas",
        "e"
      ],
      [
        "Ġcomm",
        "od"
      ],
      [
        "ĠOn",
        "e"
      ],
      [
        "ternative",
        "ly"
      ],
      [
        "Ġyiel",
        "d"
      ],
      [
        "way",
        "s"
      ],
      [
        "Ġpat",
        "tern"
      ],
      [
        "Ġsyste",
        "matic"
      ],
      [
        "Ġsuggest",
        "s"
      ],
      [
        "Ġgr",
        "ou"
      ],
      [
        "Ġmathemat",
        "ical"
      ],
      [
        "Ġpercent",
        "age"
      ],
      [
        "ĠForm",
        "ula"
      ],
      [
        "Ġbenef",
        "it"
      ],
      [
        "Ġequip",
        "ment"
      ],
      [
        "=",
        "\\"
      ],
      [
        "B",
        "T"
      ],
      [
        "M",
        "L"
      ],
      [
        "\\",
        "%"
      ],
      [
        "a",
        "c"
      ],
      [
        "a",
        "u"
      ],
      [
        "a",
        "ment"
      ],
      [
        "a",
        "ges"
      ],
      [
        "g",
        "ree"
      ],
      [
        "g",
        "ine"
      ],
      [
        "l",
        "i"
      ],
      [
        "l",
        "ine"
      ],
      [
        "o",
        "us"
      ],
      [
        "o",
        "ver"
      ],
      [
        "o",
        "cus"
      ],
      [
        "p",
        "et"
      ],
      [
        "t",
        "ing"
      ],
      [
        "t",
        "il"
      ],
      [
        "u",
        "d"
      ],
      [
        "Ġ",
        "%"
      ],
      [
        "Ġ",
        "Z"
      ],
      [
        "Ġ",
        "ide"
      ],
      [
        "in",
        "ci"
      ],
      [
        "Ġo",
        "p"
      ],
      [
        "Ġthe",
        "ta"
      ],
      [
        "Ġc",
        "ust"
      ],
      [
        "Ġc",
        "heck"
      ],
      [
        "Ġs",
        "ay"
      ],
      [
        "Ġf",
        "ra"
      ],
      [
        "Ġf",
        "urther"
      ],
      [
        "Ġf",
        "ocus"
      ],
      [
        "Ġb",
        "ull"
      ],
      [
        "Ġb",
        "orrow"
      ],
      [
        "ar",
        "ily"
      ],
      [
        "Ġd",
        "ed"
      ],
      [
        "Ġd",
        "oll"
      ],
      [
        "ic",
        "ations"
      ],
      [
        "Ġre",
        "ward"
      ],
      [
        "Ġl",
        "et"
      ],
      [
        "Ġl",
        "if"
      ],
      [
        "Ġst",
        "ep"
      ],
      [
        "Ġh",
        "is"
      ],
      [
        "Ġh",
        "yp"
      ],
      [
        "ĠThe",
        "ta"
      ],
      [
        "Ġde",
        "gree"
      ],
      [
        "Ġg",
        "ives"
      ],
      [
        "Ġg",
        "au"
      ],
      [
        "ver",
        "y"
      ],
      [
        "Ġpro",
        "per"
      ],
      [
        "if",
        "t"
      ],
      [
        "ot",
        "he"
      ],
      [
        "ĠS",
        "ome"
      ],
      [
        "Ġal",
        "ways"
      ],
      [
        "ĠF",
        "r"
      ],
      [
        "ĠE",
        "TF"
      ],
      [
        "Ġper",
        "pet"
      ],
      [
        "ĠR",
        "et"
      ],
      [
        "Ġun",
        "cer"
      ],
      [
        "ĠIn",
        "come"
      ],
      [
        "ĠP",
        "ortfolio"
      ],
      [
        "ĠM",
        "e"
      ],
      [
        "Ġne",
        "ar"
      ],
      [
        "âĢĭ",
        "âĢĭ"
      ],
      [
        "Ġstr",
        "ong"
      ],
      [
        "Ġstandard",
        "ized"
      ],
      [
        "Ġma",
        "kes"
      ],
      [
        "Ġwe",
        "ighted"
      ],
      [
        "Ġfun",
        "ction"
      ],
      [
        "Ġgener",
        "al"
      ],
      [
        "Ġmeasure",
        "ment"
      ],
      [
        "Ġrelative",
        "ly"
      ],
      [
        "Ġincreas",
        "ing"
      ],
      [
        "Ġproject",
        "ed"
      ],
      [
        "Ġfact",
        "or"
      ],
      [
        "Ġfund",
        "ament"
      ],
      [
        "Ġwor",
        "k"
      ],
      [
        "ĠEx",
        "change"
      ],
      [
        "ĠL",
        "ike"
      ],
      [
        "Ġlong",
        "er"
      ],
      [
        "Ġmin",
        "im"
      ],
      [
        "Ġkn",
        "ow"
      ],
      [
        "Ġappro",
        "ach"
      ],
      [
        "ĠWh",
        "at"
      ],
      [
        "Ġspecul",
        "ate"
      ],
      [
        "Ġfa",
        "ir"
      ],
      [
        "Ġeconom",
        "ic"
      ],
      [
        "Ġext",
        "re"
      ],
      [
        "Ġbarrel",
        "s"
      ],
      [
        "ax",
        "is"
      ],
      [
        "Ġtheore",
        "tical"
      ],
      [
        "Ġel",
        "se"
      ],
      [
        "Ġsc",
        "en"
      ],
      [
        "Ġarr",
        "ive"
      ],
      [
        "Ġrele",
        "vant"
      ],
      [
        "Ġcurren",
        "cy"
      ],
      [
        "ĠTreas",
        "ury"
      ],
      [
        "Ġconstru",
        "ct"
      ],
      [
        "Ġgrou",
        "p"
      ],
      [
        "Ġcust",
        "om"
      ],
      [
        "Ġdoll",
        "ar"
      ],
      [
        "Ġlif",
        "e"
      ],
      [
        "Ġhyp",
        "othe"
      ],
      [
        "Ġuncer",
        "tain"
      ],
      [
        ".",
        "\""
      ],
      [
        ".",
        ","
      ],
      [
        "1",
        "00"
      ],
      [
        ":",
        "}"
      ],
      [
        "C",
        "APM"
      ],
      [
        "a",
        "k"
      ],
      [
        "a",
        "v"
      ],
      [
        "b",
        "ack"
      ],
      [
        "b",
        "eta"
      ],
      [
        "f",
        "act"
      ],
      [
        "g",
        "ed"
      ],
      [
        "l",
        "ed"
      ],
      [
        "l",
        "ike"
      ],
      [
        "m",
        "ber"
      ],
      [
        "o",
        "an"
      ],
      [
        "o",
        "ff"
      ],
      [
        "r",
        "isk"
      ],
      [
        "s",
        "ol"
      ],
      [
        "u",
        "bl"
      ],
      [
        "w",
        "h"
      ],
      [
        "y",
        "le"
      ],
      [
        "y",
        "ear"
      ],
      [
        "{",
        "\\"
      ],
      [
        "Ġ",
        "6"
      ],
      [
        "Ġ",
        "Q"
      ],
      [
        "Ġ",
        "^"
      ],
      [
        "Ġ",
        "j"
      ],
      [
        "Ġ",
        "es"
      ],
      [
        "Ġa",
        "ch"
      ],
      [
        "Ġa",
        "ver"
      ],
      [
        "re",
        "ct"
      ],
      [
        "Ġc",
        "ol"
      ],
      [
        "is",
        "s"
      ],
      [
        "an",
        "k"
      ],
      [
        "an",
        "ges"
      ],
      [
        "Ġp",
        "ubl"
      ],
      [
        "Ġf",
        "l"
      ],
      [
        "Ġb",
        "ad"
      ],
      [
        "Ġd",
        "r"
      ],
      [
        "Ġd",
        "ra"
      ],
      [
        "Ġd",
        "ue"
      ],
      [
        "ic",
        "es"
      ],
      [
        "Ġis",
        "s"
      ],
      [
        "ĠT",
        "ra"
      ],
      [
        "Ġpr",
        "inci"
      ],
      [
        "Ġl",
        "en"
      ],
      [
        "Ġl",
        "oan"
      ],
      [
        "ol",
        "og"
      ],
      [
        "os",
        "ite"
      ],
      [
        "ig",
        "in"
      ],
      [
        "Ġor",
        "igin"
      ],
      [
        "Ġg",
        "u"
      ],
      [
        "Ġg",
        "ive"
      ],
      [
        "Ġrisk",
        "ier"
      ],
      [
        "Ġcon",
        "cer"
      ],
      [
        "pe",
        "ar"
      ],
      [
        "ab",
        "ly"
      ],
      [
        "ĠF",
        "ree"
      ],
      [
        "Ġun",
        "til"
      ],
      [
        "st",
        "yle"
      ],
      [
        "Ġexp",
        "osure"
      ],
      [
        "ĠM",
        "o"
      ],
      [
        "ĠM",
        "ost"
      ],
      [
        "ĠB",
        "ut"
      ],
      [
        "Ġunder",
        "standing"
      ],
      [
        "anc",
        "es"
      ],
      [
        "Ġdevi",
        "ations"
      ],
      [
        "ĠD",
        "is"
      ],
      [
        "Ġac",
        "qu"
      ],
      [
        "Ġac",
        "cept"
      ],
      [
        "Ġta",
        "kes"
      ],
      [
        "pl",
        "ies"
      ],
      [
        "ffici",
        "ency"
      ],
      [
        "Ġprof",
        "ess"
      ],
      [
        "rel",
        "ation"
      ],
      [
        "Ġma",
        "de"
      ],
      [
        "ĠH",
        "ed"
      ],
      [
        "pp",
        "ose"
      ],
      [
        "mon",
        "g"
      ],
      [
        "per",
        "form"
      ],
      [
        "Ġdis",
        "p"
      ],
      [
        "ĠO",
        "TC"
      ],
      [
        "Ġhigh",
        "ly"
      ],
      [
        "Ġderiv",
        "ed"
      ],
      [
        "ĠU",
        "sing"
      ],
      [
        "ĠN",
        "et"
      ],
      [
        "Ġdec",
        "lin"
      ],
      [
        "Ġcl",
        "ass"
      ],
      [
        "ĠAn",
        "aly"
      ],
      [
        "Ġdivid",
        "ing"
      ],
      [
        "Ġwor",
        "king"
      ],
      [
        "Ġpredict",
        "ed"
      ],
      [
        "Ġmetho",
        "ds"
      ],
      [
        "Ġar",
        "t"
      ],
      [
        "Ġsimul",
        "ations"
      ],
      [
        "Ġtren",
        "d"
      ],
      [
        "ĠAl",
        "ternatively"
      ],
      [
        "Ġneed",
        "s"
      ],
      [
        "Ġ202",
        "5"
      ],
      [
        "Ġfall",
        "s"
      ],
      [
        "ĠUn",
        "der"
      ],
      [
        "Ġinst",
        "ance"
      ],
      [
        "Ġdes",
        "c"
      ],
      [
        "Ġdecreas",
        "es"
      ],
      [
        "Ġdeliv",
        "ery"
      ],
      [
        "Ġmonth",
        "ly"
      ],
      [
        "Ġopp",
        "ortun"
      ],
      [
        "get",
        "her"
      ],
      [
        "Ġcont",
        "r"
      ],
      [
        "Ġoptim",
        "al"
      ],
      [
        "ov",
        "ariance"
      ],
      [
        "Ġrem",
        "ain"
      ],
      [
        "Ġinstru",
        "ments"
      ],
      [
        "vail",
        "able"
      ],
      [
        "Ġpop",
        "ular"
      ],
      [
        "Ġtechniqu",
        "e"
      ],
      [
        "Ġsqu",
        "are"
      ],
      [
        "Ġdecis",
        "ions"
      ],
      [
        "Ġnecess",
        "arily"
      ],
      [
        "Ġpattern",
        "s"
      ],
      [
        "Ġded",
        "uct"
      ],
      [
        "Ġgau",
        "ge"
      ],
      [
        "ĠRet",
        "urn"
      ],
      [
        "Ġextre",
        "me"
      ],
      [
        "Ġach",
        "ie"
      ],
      [
        "Ġconcer",
        "n"
      ],
      [
        "2",
        "0"
      ],
      [
        "4",
        "0"
      ],
      [
        "8",
        "0"
      ],
      [
        "D",
        "CF"
      ],
      [
        "E",
        "G"
      ],
      [
        "E",
        "R"
      ],
      [
        "M",
        "PT"
      ],
      [
        "P",
        "C"
      ],
      [
        "R",
        "OE"
      ],
      [
        "e",
        "ly"
      ],
      [
        "f",
        "t"
      ],
      [
        "i",
        "ate"
      ],
      [
        "l",
        "er"
      ],
      [
        "n",
        "orm"
      ],
      [
        "o",
        "ci"
      ],
      [
        "r",
        "al"
      ],
      [
        "t",
        "ed"
      ],
      [
        "t",
        "le"
      ],
      [
        "u",
        "es"
      ],
      [
        "v",
        "ent"
      ],
      [
        "v",
        "ious"
      ],
      [
        "y",
        "ing"
      ],
      [
        "Ġ",
        "9"
      ],
      [
        "Ġa",
        "mong"
      ],
      [
        "Ġa",
        "vailable"
      ],
      [
        "he",
        "s"
      ],
      [
        "in",
        "s"
      ],
      [
        "Ġc",
        "ru"
      ],
      [
        "Ġc",
        "red"
      ],
      [
        "er",
        "i"
      ],
      [
        "Ġs",
        "ing"
      ],
      [
        "it",
        "u"
      ],
      [
        "it",
        "z"
      ],
      [
        "Ġin",
        "put"
      ],
      [
        "Ġin",
        "stead"
      ],
      [
        "Ġf",
        "ul"
      ],
      [
        "Ġf",
        "our"
      ],
      [
        "Ġf",
        "ix"
      ],
      [
        "Ġb",
        "ig"
      ],
      [
        "Ġm",
        "utual"
      ],
      [
        "ar",
        "ter"
      ],
      [
        "Ġd",
        "on"
      ],
      [
        "Ġd",
        "en"
      ],
      [
        "Ġd",
        "ro"
      ],
      [
        "Ġto",
        "gether"
      ],
      [
        "Ġto",
        "ler"
      ],
      [
        "Ġe",
        "ar"
      ],
      [
        "Ġe",
        "very"
      ],
      [
        "om",
        "in"
      ],
      [
        "et",
        "y"
      ],
      [
        "Ġr",
        "o"
      ],
      [
        "Ġre",
        "ly"
      ],
      [
        "ul",
        "as"
      ],
      [
        "ul",
        "ated"
      ],
      [
        "Ġv",
        "ega"
      ],
      [
        "ur",
        "ance"
      ],
      [
        "ow",
        "itz"
      ],
      [
        "Ġst",
        "ill"
      ],
      [
        "ol",
        "e"
      ],
      [
        "Ġcom",
        "es"
      ],
      [
        "Ġex",
        "it"
      ],
      [
        "im",
        "in"
      ],
      [
        "Ġn",
        "am"
      ],
      [
        "Ġcomp",
        "lex"
      ],
      [
        "de",
        "x"
      ],
      [
        "Ġass",
        "oci"
      ],
      [
        "Ġ(",
        "$"
      ],
      [
        "Ġpro",
        "te"
      ],
      [
        "Ġret",
        "ail"
      ],
      [
        "Ġse",
        "ction"
      ],
      [
        "ark",
        "owitz"
      ],
      [
        "are",
        "holders"
      ],
      [
        "Ġal",
        "ong"
      ],
      [
        "Ġal",
        "ternative"
      ],
      [
        "ĠE",
        "BIT"
      ],
      [
        "ĠR",
        "isk"
      ],
      [
        "Ġwh",
        "y"
      ],
      [
        "ĠC",
        "or"
      ],
      [
        "ĠIn",
        "dex"
      ],
      [
        "ĠP",
        "earson"
      ],
      [
        "ĠP",
        "EG"
      ],
      [
        "tra",
        "ded"
      ],
      [
        "Ġexp",
        "eri"
      ],
      [
        "ĠM",
        "ic"
      ],
      [
        "ĠM",
        "arkowitz"
      ],
      [
        "Ġvari",
        "ability"
      ],
      [
        "ĠB",
        "u"
      ],
      [
        "th",
        "ough"
      ],
      [
        "Ġch",
        "all"
      ],
      [
        "Ġcalcul",
        "ations"
      ],
      [
        "Ġearn",
        "ed"
      ],
      [
        "Ġac",
        "ross"
      ],
      [
        "Ġta",
        "ken"
      ],
      [
        "pl",
        "ained"
      ],
      [
        "Ġstr",
        "uct"
      ],
      [
        "Ġmodel",
        "s"
      ],
      [
        "row",
        "th"
      ],
      [
        "Ġcor",
        "por"
      ],
      [
        "Ġcor",
        "rect"
      ],
      [
        "ĠH",
        "e"
      ],
      [
        "Ġdiv",
        "ide"
      ],
      [
        "Ġout",
        "standing"
      ],
      [
        "Ġcur",
        "ve"
      ],
      [
        "Ġdetermin",
        "ing"
      ],
      [
        "Ġhelp",
        "ful"
      ],
      [
        "Ġdepend",
        "ing"
      ],
      [
        "ru",
        "e"
      ],
      [
        "Ġmulti",
        "plied"
      ],
      [
        "Ġqu",
        "arter"
      ],
      [
        "Ġlook",
        "s"
      ],
      [
        "Ġevalu",
        "ating"
      ],
      [
        "Ġfollow",
        "s"
      ],
      [
        "Ġposition",
        "s"
      ],
      [
        "Ġfe",
        "es"
      ],
      [
        "Ġfirm",
        "s"
      ],
      [
        "Ġforward",
        "s"
      ],
      [
        "Ġinvol",
        "ves"
      ],
      [
        "Ġap",
        "pear"
      ],
      [
        "Ġfig",
        "ures"
      ],
      [
        "lin",
        "ear"
      ],
      [
        "Ġbon",
        "d"
      ],
      [
        "Ġdire",
        "ct"
      ],
      [
        "Ġwant",
        "s"
      ],
      [
        "Ġanalyz",
        "ing"
      ],
      [
[...]
